[PAD]	0
[UNK]	0
[BOS]	0
[EOS]	0
en	-0
er	-1
ch	-2
▁d	-3
in	-4
ie	-5
▁s	-6
▁,	-7
▁w	-8
un	-9
▁a	-10
▁.	-11
ich	-12
▁e	-13
▁m	-14
st	-15
▁un	-16
as	-17
▁g	-18
▁die	-19
an	-20
ei	-21
▁ein	-22
▁b	-23
te	-24
▁v	-25
▁i	-26
▁h	-27
▁und	-28
▁n	-29
▁k	-30
▁z	-31
es	-32
▁das	-33
on	-34
ir	-35
▁f	-36
le	-37
ar	-38
ten	-39
sch	-40
▁in	-41
▁zu	-42
▁wir	-43
▁sie	-44
el	-45
gen	-46
hr	-47
▁au	-48
▁der	-49
or	-50
▁ich	-51
ti	-52
em	-53
▁ist	-54
der	-55
au	-56
▁es	-57
ein	-58
it	-59
al	-60
▁p	-61
▁al	-62
lich	-63
▁er	-64
den	-65
ge	-66
ach	-67
ben	-68
▁an	-69
ber	-70
▁ha	-71
de	-72
ter	-73
icht	-74
ier	-75
▁ver	-76
▁t	-77
ur	-78
▁dies	-79
ot	-80
▁ge	-81
▁l	-82
▁r	-83
ol	-84
▁j	-85
ung	-86
▁&	-87
▁be	-88
▁den	-89
qu	-90
▁sch	-91
um	-92
ür	-93
quot	-94
nen	-95
mm	-96
▁nicht	-97
▁von	-98
▁auf	-99
▁dass	-100
sen	-101
▁eine	-102
ro	-103
▁als	-104
▁mit	-105
eit	-106
is	-107
▁o	-108
▁wie	-109
ck	-110
tz	-111
ann	-112
eh	-113
len	-114
ra	-115
▁uns	-116
il	-117
▁so	-118
ind	-119
▁war	-120
ig	-121
ent	-122
▁da	-123
▁le	-124
▁sich	-125
re	-126
▁wen	-127
über	-128
▁st	-129
▁man	-130
▁was	-131
▁aus	-132
at	-133
schen	-134
us	-135
▁um	-136
▁sind	-137
▁für	-138
ahr	-139
ön	-140
▁aber	-141
and	-142
tion	-143
be	-144
▁:	-145
▁wenn	-146
▁haben	-147
ft	-148
▁über	-149
▁?	-150
ag	-151
▁hat	-152
am	-153
iel	-154
ehr	-155
▁ges	-156
▁wer	-157
▁ihr	-158
▁kön	-159
▁diese	-160
▁mein	-161
än	-162
ff	-163
▁vor	-164
▁im	-165
se	-166
eu	-167
▁wei	-168
och	-169
ehen	-170
▁sp	-171
▁dem	-172
▁re	-173
om	-174
ik	-175
sten	-176
▁ar	-177
▁je	-178
▁sein	-179
▁pro	-180
▁des	-181
kt	-182
ern	-183
▁also	-184
▁men	-185
▁-	-186
tw	-187
▁einen	-188
os	-189
▁bei	-190
chen	-191
▁nach	-192
bt	-193
oll	-194
mmen	-195
▁ih	-196
▁können	-197
rei	-198
▁unser	-199
elt	-200
▁ent	-201
▁hier	-202
isch	-203
▁oder	-204
wei	-205
▁werden	-206
▁jahr	-207
ah	-208
ut	-209
▁geh	-210
ungen	-211
men	-212
gt	-213
sp	-214
ne	-215
ieren	-216
▁ander	-217
zu	-218
▁gr	-219
▁mach	-220
ien	-221
li	-222
▁kann	-223
ste	-224
▁–	-225
ken	-226
▁her	-227
▁einer	-228
ell	-229
ation	-230
▁auch	-231
▁1	-232
rau	-233
▁dar	-234
scha	-235
iert	-236
▁dann	-237
▁einem	-238
igen	-239
▁sehr	-240
anz	-241
ück	-242
▁ko	-243
▁etw	-244
tig	-245
aus	-246
▁wird	-247
▁nur	-248
▁all	-249
tel	-250
▁viel	-251
ort	-252
▁unter	-253
uch	-254
▁gi	-255
▁gen	-256
ess	-257
▁c	-258
▁kon	-259
▁menschen	-260
ör	-261
▁leben	-262
▁mich	-263
ute	-264
fen	-265
urch	-266
▁gibt	-267
▁ihnen	-268
äch	-269
issen	-270
äh	-271
▁kein	-272
▁gesch	-273
▁te	-274
▁wur	-275
▁ab	-276
lau	-277
tzt	-278
▁sehen	-279
og	-280
hal	-281
ischen	-282
▁alle	-283
▁noch	-284
ing	-285
▁dieser	-286
ab	-287
▁etwas	-288
▁--	-289
▁am	-290
ap	-291
▁durch	-292
schaft	-293
und	-294
▁gro	-295
▁welt	-296
▁mö	-297
▁habe	-298
ät	-299
lt	-300
ang	-301
dern	-302
▁wissen	-303
▁sag	-304
▁mehr	-305
agen	-306
▁wo	-307
ver	-308
bei	-309
▁mir	-310
▁zur	-311
heit	-312
ün	-313
mal	-314
ri	-315
mmer	-316
üh	-317
▁mus	-318
lichen	-319
▁groß	-320
keit	-321
ke	-322
▁wirk	-323
▁we	-324
ko	-325
ige	-326
▁vie	-327
▁einf	-328
är	-329
ffen	-330
00	-331
all	-332
▁zum	-333
liche	-334
▁ganz	-335
we	-336
▁zwei	-337
▁en	-338
▁ihre	-339
tr	-340
▁2	-341
▁bes	-342
▁br	-343
▁wür	-344
▁wirklich	-345
sa	-346
mit	-347
ellen	-348
▁hin	-349
▁meine	-350
▁zeit	-351
▁weil	-352
ähr	-353
eil	-354
tiv	-355
▁nun	-356
tet	-357
▁wurde	-358
üs	-359
hen	-360
▁machen	-361
ass	-362
ere	-363
▁neu	-364
▁dieses	-365
me	-366
▁sel	-367
tzen	-368
▁einfach	-369
ick	-370
▁ch	-371
assen	-372
ische	-373
▁inter	-374
eln	-375
▁me	-376
▁verb	-377
per	-378
her	-379
ru	-380
▁gew	-381
ul	-382
▁immer	-383
for	-384
▁lie	-385
▁tun	-386
bst	-387
acht	-388
▁din	-389
▁bis	-390
ht	-391
ühr	-392
cht	-393
end	-394
he	-395
▁unsere	-396
ungs	-397
▁kle	-398
▁ne	-399
▁gem	-400
ad	-401
bar	-402
▁jetzt	-403
▁beg	-404
▁fra	-405
▁bil	-406
ges	-407
▁se	-408
ob	-409
ran	-410
wer	-411
chte	-412
nte	-413
lie	-414
mmt	-415
▁gef	-416
▁vers	-417
▁hatte	-418
▁du	-419
ze	-420
pf	-421
glich	-422
▁klein	-423
inden	-424
▁denn	-425
rie	-426
▁keine	-427
ktion	-428
▁selbst	-429
▁pa	-430
▁tat	-431
ner	-432
tier	-433
che	-434
▁leute	-435
pp	-436
ster	-437
▁eigen	-438
▁diesem	-439
eiten	-440
onen	-441
ehmen	-442
▁viele	-443
▁müs	-444
schie	-445
▁gel	-446
leich	-447
▁ber	-448
di	-449
▁sagte	-450
▁ger	-451
▁sagen	-452
▁geb	-453
olog	-454
▁ob	-455
omp	-456
▁diesen	-457
ingen	-458
▁dinge	-459
dem	-460
chn	-461
äu	-462
▁eines	-463
▁zei	-464
▁soll	-465
stell	-466
▁mil	-467
▁pl	-468
ichtig	-469
▁waren	-470
▁weiter	-471
ler	-472
▁glau	-473
ble	-474
▁alles	-475
▁art	-476
▁wieder	-477
äl	-478
ßen	-479
gend	-480
zen	-481
▁bin	-482
▁kl	-483
ger	-484
▁heu	-485
▁bl	-486
▁son	-487
▁erf	-488
▁jahren	-489
kommen	-490
▁andere	-491
▁müssen	-492
▁kin	-493
unden	-494
du	-495
▁würde	-496
▁nat	-497
▁nie	-498
▁wel	-499
ichte	-500
ma	-501
ollen	-502
zi	-503
▁ste	-504
▁anderen	-505
▁entw	-506
fl	-507
▁stel	-508
geb	-509
det	-510
▁per	-511
▁zusa	-512
leicht	-513
▁mal	-514
▁ex	-515
▁gl	-516
ser	-517
▁damit	-518
angen	-519
▁heraus	-520
▁zusammen	-521
auf	-522
tisch	-523
▁verst	-524
▁vielleicht	-525
ist	-526
▁proble	-527
nis	-528
op	-529
▁schw	-530
▁tats	-531
gef	-532
▁wahr	-533
auen	-534
nt	-535
ekt	-536
▁or	-537
▁dan	-538
▁fl	-539
▁gut	-540
▁zw	-541
▁for	-542
under	-543
des	-544
▁dav	-545
ität	-546
age	-547
▁milli	-548
▁erz	-549
änder	-550
▁geht	-551
ion	-552
▁jahre	-553
rä	-554
iger	-555
yst	-556
ast	-557
▁entwick	-558
▁ja	-559
▁zurück	-560
ache	-561
▁best	-562
oh	-563
ale	-564
ug	-565
off	-566
tern	-567
▁techn	-568
ystem	-569
amen	-570
fe	-571
▁gleich	-572
uten	-573
▁ide	-574
ächlich	-575
▁heute	-576
beit	-577
nten	-578
br	-579
▁schon	-580
▁dr	-581
▁muss	-582
spiel	-583
▁teil	-584
▁drei	-585
▁warum	-586
▁kinder	-587
zent	-588
▁letz	-589
▁arbei	-590
▁ö	-591
ill	-592
▁reg	-593
halten	-594
▁pass	-595
▁mo	-596
▁ir	-597
▁einige	-598
▁möchte	-599
▁dort	-600
▁gegen	-601
öß	-602
▁sei	-603
▁einz	-604
äre	-605
tes	-606
▁oh	-607
▁genau	-608
stellen	-609
▁ben	-610
▁tatsächlich	-611
▁macht	-612
▁frau	-613
cken	-614
art	-615
kl	-616
apos	-617
▁de	-618
tik	-619
▁brau	-620
tigen	-621
inn	-622
▁verw	-623
▁geschichte	-624
▁3	-625
pt	-626
ak	-627
▁davon	-628
▁mensch	-629
vor	-630
ationen	-631
alen	-632
▁land	-633
ok	-634
aten	-635
▁bede	-636
▁jem	-637
elle	-638
▁spr	-639
▁möglich	-640
▁weg	-641
esen	-642
▁hand	-643
▁zie	-644
rechen	-645
▁tag	-646
▁fr	-647
▁hei	-648
▁seine	-649
ichten	-650
ine	-651
ahl	-652
▁paar	-653
▁bild	-654
▁wichtig	-655
aut	-656
▁denken	-657
▁könnte	-658
ater	-659
▁besch	-660
dien	-661
▁mei	-662
▁hatten	-663
uchen	-664
achte	-665
mer	-666
halb	-667
sam	-668
tige	-669
mlich	-670
▁grund	-671
olle	-672
▁darüber	-673
ologie	-674
▁verl	-675
▁größ	-676
▁schl	-677
▁kam	-678
▁natür	-679
tt	-680
▁ihn	-681
000	-682
weise	-683
gel	-684
form	-685
esser	-686
iz	-687
ant	-688
ade	-689
▁gehen	-690
▁arbeit	-691
ek	-692
▁lassen	-693
▁stu	-694
ennen	-695
▁pers	-696
▁wollen	-697
anden	-698
äd	-699
aum	-700
att	-701
achen	-702
▁fun	-703
iv	-704
▁ph	-705
▁schn	-706
▁fre	-707
oren	-708
▁währ	-709
ändern	-710
igkeit	-711
▁werde	-712
▁lei	-713
pro	-714
▁komp	-715
fr	-716
uss	-717
▁jeder	-718
▁ihren	-719
▁beispiel	-720
▁woll	-721
▁meiner	-722
ha	-723
vers	-724
reich	-725
itt	-726
irn	-727
est	-728
▁weiß	-729
▁aut	-730
gar	-731
net	-732
zeu	-733
▁tra	-734
▁sicher	-735
gr	-736
▁wor	-737
schein	-738
▁erzäh	-739
▁wurden	-740
▁während	-741
unde	-742
ierte	-743
▁sta	-744
▁irgend	-745
▁funktion	-746
▁dazu	-747
für	-748
▁führ	-749
hin	-750
▁lang	-751
▁problem	-752
▁;	-753
▁mar	-754
▁interess	-755
schieden	-756
▁mon	-757
utzen	-758
▁neue	-759
▁bewe	-760
▁gab	-761
▁erst	-762
▁sti	-763
tra	-764
▁kommen	-765
fer	-766
▁hal	-767
ander	-768
tlich	-769
▁vom	-770
hn	-771
▁unserer	-772
▁natürlich	-773
gie	-774
▁19	-775
▁denke	-776
▁wäre	-777
▁sondern	-778
▁lebens	-779
▁zwischen	-780
▁will	-781
▁5	-782
änd	-783
▁gemacht	-784
▁sogar	-785
▁versuch	-786
▁gemein	-787
▁denen	-788
▁glaube	-789
▁wasser	-790
▁doch	-791
▁frage	-792
▁finden	-793
▁näch	-794
▁wissenschaft	-795
▁hät	-796
achten	-797
▁gerade	-798
▁ersten	-799
▁einmal	-800
▁sol	-801
zie	-802
▁schu	-803
▁geben	-804
im	-805
▁ihrer	-806
ühl	-807
▁ohne	-808
od	-809
▁kur	-810
▁nichts	-811
schl	-812
▁bi	-813
▁prozent	-814
ss	-815
geben	-816
▁scha	-817
▁letzten	-818
▁pol	-819
gehen	-820
▁nor	-821
▁erw	-822
gew	-823
▁kommt	-824
▁dafür	-825
▁ins	-826
▁anf	-827
▁20	-828
▁lö	-829
nehmen	-830
ften	-831
▁würden	-832
gan	-833
▁zeigen	-834
dr	-835
ika	-836
▁kre	-837
keiten	-838
licht	-839
ativ	-840
▁bew	-841
▁gehirn	-842
alt	-843
ßer	-844
lung	-845
ce	-846
▁betr	-847
▁besser	-848
▁ok	-849
ph	-850
▁passiert	-851
▁produ	-852
▁verstehen	-853
▁vier	-854
▁rei	-855
hem	-856
ay	-857
▁uni	-858
ören	-859
▁vielen	-860
tschaft	-861
▁qu	-862
▁erste	-863
▁meisten	-864
▁verschieden	-865
▁4	-866
ult	-867
aufen	-868
cher	-869
uter	-870
▁sieht	-871
▁konnte	-872
▁millionen	-873
ünf	-874
chten	-875
▁daran	-876
bl	-877
öl	-878
▁min	-879
pl	-880
▁ak	-881
▁ele	-882
ierung	-883
▁spiel	-884
schei	-885
zin	-886
ikan	-887
unkt	-888
bs	-889
rank	-890
enden	-891
▁ung	-892
▁nehmen	-893
örper	-894
▁idee	-895
ys	-896
str	-897
ergie	-898
▁daten	-899
▁ganze	-900
gung	-901
▁stellen	-902
.000	-903
ahren	-904
▁geld	-905
ört	-906
▁sagt	-907
imm	-908
▁fol	-909
▁große	-910
th	-911
▁dabei	-912
id	-913
▁jemand	-914
▁fall	-915
▁etwa	-916
▁glück	-917
▁könnten	-918
▁sollte	-919
▁sa	-920
ckt	-921
ign	-922
chs	-923
gesch	-924
ange	-925
▁bek	-926
teil	-927
▁star	-928
▁arbeiten	-929
▁ziemlich	-930
gra	-931
ane	-932
▁tr	-933
stellt	-934
innen	-935
▁ged	-936
▁spie	-937
▁frauen	-938
yp	-939
äng	-940
licher	-941
▁sollten	-942
ül	-943
▁univers	-944
▁welche	-945
mus	-946
▁10	-947
tieren	-948
ogen	-949
▁dir	-950
▁di	-951
▁schnell	-952
▁raum	-953
mme	-954
ollar	-955
▁ti	-956
▁pr	-957
▁bef	-958
▁beh	-959
▁fin	-960
▁inform	-961
ker	-962
kun	-963
los	-964
▁sprechen	-965
legen	-966
▁verg	-967
▁hau	-968
▁fragen	-969
▁gute	-970
▁meinen	-971
▁bekommen	-972
ate	-973
▁system	-974
▁irgendw	-975
▁wollte	-976
agt	-977
schied	-978
ppe	-979
▁co	-980
▁us	-981
▁darauf	-982
erst	-983
▁meinem	-984
ts	-985
▁nah	-986
ust	-987
utz	-988
ingt	-989
▁veränder	-990
nung	-991
ären	-992
▁amer	-993
▁körper	-994
utter	-995
▁hoch	-996
▁comp	-997
▁bedeute	-998
sehen	-999
ite	-1000
▁lin	-1001
mö	-1002
ktur	-1003
▁ging	-1004
hl	-1005
spr	-1006
▁hel	-1007
▁gest	-1008
ßt	-1009
▁kleinen	-1010
▁em	-1011
▁seit	-1012
▁y	-1013
▁bo	-1014
jekt	-1015
▁verf	-1016
▁außer	-1017
▁tei	-1018
▁stra	-1019
ernen	-1020
ution	-1021
▁bereit	-1022
kunft	-1023
▁verk	-1024
scheinlich	-1025
▁glauben	-1026
▁dollar	-1027
onder	-1028
no	-1029
gte	-1030
▁wunder	-1031
kte	-1032
amil	-1033
▁ende	-1034
eht	-1035
▁fal	-1036
▁eigentlich	-1037
mals	-1038
enz	-1039
ide	-1040
zei	-1041
▁energie	-1042
▁kind	-1043
▁technologie	-1044
▁weniger	-1045
woh	-1046
▁organ	-1047
itz	-1048
sst	-1049
▁afr	-1050
▁buch	-1051
annt	-1052
laub	-1053
▁hö	-1054
▁poli	-1055
▁mom	-1056
▁get	-1057
tische	-1058
ischer	-1059
▁fünf	-1060
▁sah	-1061
reiben	-1062
▁ganzen	-1063
twort	-1064
pr	-1065
▁sache	-1066
▁großen	-1067
▁bedeutet	-1068
sicht	-1069
stand	-1070
▁lernen	-1071
▁jeden	-1072
fte	-1073
itte	-1074
▁schön	-1075
▁mor	-1076
▁namen	-1077
▁bringen	-1078
▁famil	-1079
▁komple	-1080
▁ihm	-1081
▁spe	-1082
▁unseren	-1083
nah	-1084
äter	-1085
▁gesehen	-1086
▁computer	-1087
▁wahrscheinlich	-1088
▁ma	-1089
asch	-1090
▁dachte	-1091
▁..	-1092
▁frei	-1093
▁ihrem	-1094
▁entschei	-1095
▁sozi	-1096
▁jedes	-1097
▁kleine	-1098
ard	-1099
▁recht	-1100
ga	-1101
▁fil	-1102
hema	-1103
▁schle	-1104
▁lehr	-1105
oten	-1106
▁person	-1107
▁seite	-1108
tei	-1109
▁ted	-1110
▁weise	-1111
are	-1112
▁brauchen	-1113
usst	-1114
▁danke	-1115
arbei	-1116
ic	-1117
raft	-1118
▁offen	-1119
▁eben	-1120
▁voll	-1121
▁ur	-1122
▁zukunft	-1123
▁mann	-1124
ruck	-1125
▁versuchen	-1126
tischen	-1127
immt	-1128
▁par	-1129
achsen	-1130
▁versch	-1131
▁hil	-1132
▁erken	-1133
▁200	-1134
fall	-1135
▁fest	-1136
▁zeigt	-1137
▁hinter	-1138
▁besonder	-1139
▁su	-1140
lick	-1141
▁ern	-1142
▁öff	-1143
▁menge	-1144
ies	-1145
ia	-1146
▁...	-1147
▁kar	-1148
▁hoff	-1149
▁tre	-1150
▁gesund	-1151
▁gar	-1152
▁wirtschaft	-1153
▁indem	-1154
dig	-1155
vol	-1156
▁ho	-1157
unter	-1158
▁ang	-1159
▁form	-1160
▁gru	-1161
adt	-1162
▁wenig	-1163
▁nein	-1164
▁unterschied	-1165
alis	-1166
▁chin	-1167
▁6	-1168
ild	-1169
▁musik	-1170
ert	-1171
▁unglaub	-1172
mittel	-1173
▁mag	-1174
▁essen	-1175
schaften	-1176
▁nutzen	-1177
▁bed	-1178
▁ort	-1179
▁beim	-1180
ald	-1181
our	-1182
essen	-1183
tzlich	-1184
ultur	-1185
▁früh	-1186
▁gern	-1187
tiert	-1188
eren	-1189
eist	-1190
▁moment	-1191
▁später	-1192
▁fot	-1193
ierten	-1194
▁fast	-1195
▁grün	-1196
▁entde	-1197
wir	-1198
tete	-1199
▁erkl	-1200
▁hätte	-1201
ernt	-1202
▁rich	-1203
▁seiner	-1204
wohl	-1205
denken	-1206
▁tau	-1207
ott	-1208
▁natur	-1209
▁keinen	-1210
leben	-1211
asse	-1212
▁dank	-1213
▁gesagt	-1214
ommen	-1215
zeit	-1216
▁eigenen	-1217
ogra	-1218
▁sy	-1219
▁woch	-1220
▁licht	-1221
▁ange	-1222
▁ster	-1223
▁gra	-1224
▁schaffen	-1225
ial	-1226
kon	-1227
führ	-1228
land	-1229
▁augen	-1230
▁plane	-1231
si	-1232
▁mutter	-1233
ief	-1234
gefähr	-1235
stellung	-1236
▁kurz	-1237
▁jede	-1238
▁gesell	-1239
▁milliar	-1240
▁bau	-1241
▁aller	-1242
fft	-1243
▁bet	-1244
ruktur	-1245
▁fäh	-1246
▁erde	-1247
▁richtig	-1248
▁el	-1249
▁män	-1250
lig	-1251
▁ungefähr	-1252
▁the	-1253
▁bere	-1254
gang	-1255
ließ	-1256
unst	-1257
umen	-1258
reis	-1259
ome	-1260
▁oft	-1261
stoff	-1262
▁anders	-1263
▁funktioniert	-1264
▁at	-1265
volution	-1266
ält	-1267
▁schwer	-1268
sel	-1269
▁füh	-1270
▁mater	-1271
▁prä	-1272
▁schauen	-1273
▁gesundheit	-1274
▁lu	-1275
ünst	-1276
▁kunst	-1277
reichen	-1278
▁erfol	-1279
▁exper	-1280
▁spielen	-1281
▁u	-1282
welt	-1283
▁dein	-1284
▁probleme	-1285
▁elekt	-1286
▁bevor	-1287
▁ü	-1288
▁schwier	-1289
▁konnten	-1290
atur	-1291
▁organis	-1292
▁ro	-1293
zeich	-1294
▁wohl	-1295
▁medi	-1296
schn	-1297
▁neuen	-1298
▁weit	-1299
so	-1300
▁8	-1301
▁krie	-1302
ppen	-1303
▁haus	-1304
▁heißt	-1305
▁inner	-1306
ähn	-1307
▁internet	-1308
▁nächsten	-1309
tze	-1310
▁genug	-1311
alität	-1312
▁helfen	-1313
▁erzählen	-1314
▁9	-1315
▁eng	-1316
▁verm	-1317
▁ideen	-1318
ße	-1319
bo	-1320
satz	-1321
▁lange	-1322
ahlen	-1323
▁liebe	-1324
mp	-1325
▁ru	-1326
▁allen	-1327
▁herum	-1328
eich	-1329
▁komm	-1330
▁kultur	-1331
ord	-1332
itten	-1333
▁kor	-1334
▁he	-1335
▁flie	-1336
▁verbr	-1337
▁design	-1338
hau	-1339
alten	-1340
▁krank	-1341
ow	-1342
▁stadt	-1343
▁begann	-1344
▁sit	-1345
▁15	-1346
ligen	-1347
lichkeit	-1348
▁bem	-1349
▁kennen	-1350
▁unserem	-1351
▁na	-1352
ädchen	-1353
cke	-1354
fel	-1355
▁rob	-1356
▁bisschen	-1357
▁50	-1358
system	-1359
nisse	-1360
▁vide	-1361
▁manch	-1362
▁30	-1363
▁new	-1364
▁blei	-1365
▁seinen	-1366
▁überall	-1367
zess	-1368
▁erfolg	-1369
▁klar	-1370
▁glob	-1371
sy	-1372
hunder	-1373
▁fort	-1374
aden	-1375
ucht	-1376
ks	-1377
▁erh	-1378
▁darum	-1379
trag	-1380
▁feh	-1381
▁euch	-1382
ahrung	-1383
▁arten	-1384
▁bauen	-1385
▁einzel	-1386
finden	-1387
▁tran	-1388
▁manchmal	-1389
▁planeten	-1390
▁100	-1391
richt	-1392
▁okay	-1393
▁reden	-1394
liches	-1395
fäl	-1396
▁leuten	-1397
▁sü	-1398
▁milliarden	-1399
▁eur	-1400
ition	-1401
enten	-1402
▁mädchen	-1403
ta	-1404
▁forsch	-1405
heiten	-1406
▁anst	-1407
▁pati	-1408
▁großar	-1409
▁dich	-1410
▁sechs	-1411
▁niem	-1412
kten	-1413
▁behand	-1414
kel	-1415
utzt	-1416
▁bel	-1417
▁rel	-1418
asst	-1419
zeug	-1420
▁far	-1421
▁wus	-1422
isten	-1423
lte	-1424
▁afrika	-1425
▁projekt	-1426
▁verein	-1427
▁verhalten	-1428
▁seinem	-1429
ieht	-1430
möglich	-1431
▁amerikan	-1432
▁bür	-1433
äche	-1434
▁schule	-1435
▁str	-1436
▁statt	-1437
▁anderes	-1438
▁pri	-1439
▁nennen	-1440
▁mat	-1441
ücken	-1442
▁gener	-1443
ven	-1444
▁to	-1445
sche	-1446
▁kopf	-1447
▁stehen	-1448
▁bewusst	-1449
▁universum	-1450
▁verändern	-1451
raum	-1452
▁stand	-1453
iss	-1454
▁is	-1455
tigt	-1456
glichen	-1457
▁pu	-1458
▁ähn	-1459
▁hören	-1460
▁film	-1461
▁ober	-1462
▁liegt	-1463
▁gehört	-1464
▁geschichten	-1465
▁sagten	-1466
jek	-1467
gramm	-1468
▁wert	-1469
▁entwickelt	-1470
▁indien	-1471
▁besonders	-1472
▁usa	-1473
▁punkt	-1474
▁gesellschaft	-1475
ip	-1476
rom	-1477
▁gesam	-1478
▁netz	-1479
▁los	-1480
▁normal	-1481
▁schein	-1482
▁jahrhunder	-1483
▁kontr	-1484
atz	-1485
zahl	-1486
ührt	-1487
▁lös	-1488
▁namens	-1489
▁schr	-1490
▁unternehmen	-1491
▁gebäu	-1492
▁mod	-1493
▁bereits	-1494
▁abs	-1495
ös	-1496
▁sor	-1497
▁interessan	-1498
▁informationen	-1499
ennt	-1500
tive	-1501
▁arm	-1502
▁sinn	-1503
▁schul	-1504
▁deshalb	-1505
zieh	-1506
▁vorher	-1507
lo	-1508
druck	-1509
▁oben	-1510
bringen	-1511
ände	-1512
▁flug	-1513
indung	-1514
gem	-1515
▁res	-1516
▁erinn	-1517
▁teilen	-1518
io	-1519
einander	-1520
▁benutzen	-1521
son	-1522
▁op	-1523
▁halten	-1524
▁kn	-1525
anken	-1526
▁minuten	-1527
▁bas	-1528
fin	-1529
▁ausge	-1530
hol	-1531
▁veran	-1532
▁mittel	-1533
zus	-1534
spie	-1535
dlich	-1536
isches	-1537
setzen	-1538
▁machte	-1539
▁musste	-1540
▁mu	-1541
allen	-1542
forder	-1543
▁komplex	-1544
et	-1545
▁antwort	-1546
▁niemand	-1547
▁darin	-1548
▁erreichen	-1549
sä	-1550
min	-1551
▁eff	-1552
▁vert	-1553
rat	-1554
▁schü	-1555
▁stud	-1556
▁künst	-1557
▁familie	-1558
ahn	-1559
lei	-1560
▁verschiedene	-1561
▁bilder	-1562
zentr	-1563
▁anzu	-1564
▁hätten	-1565
akter	-1566
änger	-1567
▁stück	-1568
▁entf	-1569
▁gerne	-1570
▁steht	-1571
igkeiten	-1572
aun	-1573
▁arch	-1574
▁auto	-1575
▁li	-1576
omen	-1577
▁typ	-1578
▁vater	-1579
ock	-1580
▁gruppe	-1581
▁erkennen	-1582
öff	-1583
▁fa	-1584
▁freund	-1585
▁bestimm	-1586
ium	-1587
one	-1588
▁phys	-1589
richten	-1590
voll	-1591
▁kosten	-1592
bare	-1593
halt	-1594
iges	-1595
▁geschä	-1596
▁öffent	-1597
kommt	-1598
▁beob	-1599
▁inst	-1600
annte	-1601
▁bein	-1602
stra	-1603
tter	-1604
endet	-1605
gestellt	-1606
stü	-1607
▁innerhalb	-1608
vi	-1609
öhn	-1610
grund	-1611
▁gefühl	-1612
▁unters	-1613
wend	-1614
▁robo	-1615
▁irgendwie	-1616
▁aktiv	-1617
neh	-1618
▁welch	-1619
▁einzige	-1620
▁gott	-1621
▁beein	-1622
▁pf	-1623
twor	-1624
unge	-1625
▁fir	-1626
▁eins	-1627
▁bewegen	-1628
dung	-1629
▁kap	-1630
zieren	-1631
▁besten	-1632
▁medizin	-1633
man	-1634
bild	-1635
ölker	-1636
▁jedem	-1637
trie	-1638
▁luft	-1639
ffe	-1640
▁alt	-1641
punkt	-1642
▁wegen	-1643
arten	-1644
▁braucht	-1645
▁herz	-1646
▁bemer	-1647
▁hunder	-1648
▁bereich	-1649
▁entwickeln	-1650
▁stunden	-1651
▁möglichkeit	-1652
bel	-1653
andel	-1654
rieben	-1655
▁drau	-1656
▁po	-1657
iere	-1658
▁mik	-1659
racht	-1660
ständ	-1661
▁ergeb	-1662
▁ries	-1663
▁fu	-1664
anzen	-1665
ließlich	-1666
rak	-1667
auer	-1668
inen	-1669
ässt	-1670
▁sprache	-1671
▁treffen	-1672
ehn	-1673
tem	-1674
▁vir	-1675
▁gese	-1676
▁material	-1677
tten	-1678
▁dis	-1679
▁jen	-1680
▁umwelt	-1681
▁ansch	-1682
▁rep	-1683
▁vorstellen	-1684
ings	-1685
▁obwohl	-1686
schnitt	-1687
▁sachen	-1688
fra	-1689
inner	-1690
▁krebs	-1691
▁nä	-1692
euer	-1693
▁beginnen	-1694
▁erhalten	-1695
sych	-1696
▁verschiedenen	-1697
▁kli	-1698
▁beiden	-1699
ume	-1700
▁do	-1701
lek	-1702
▁fe	-1703
▁pos	-1704
▁intel	-1705
▁folgen	-1706
▁einigen	-1707
▁verwenden	-1708
ris	-1709
▁nämlich	-1710
affen	-1711
haupt	-1712
▁rest	-1713
▁haupt	-1714
▁entst	-1715
▁reich	-1716
▁gleiche	-1717
▁menschlichen	-1718
ehe	-1719
▁nation	-1720
▁kindern	-1721
▁patienten	-1722
ider	-1723
▁stellt	-1724
gten	-1725
▁erstaun	-1726
▁erk	-1727
▁fern	-1728
▁unglaublich	-1729
genommen	-1730
sei	-1731
tis	-1732
▁persön	-1733
▁kü	-1734
▁fäl	-1735
zustellen	-1736
bes	-1737
enzen	-1738
ranken	-1739
▁china	-1740
esse	-1741
▁städ	-1742
▁bezieh	-1743
▁kä	-1744
▁sk	-1745
▁yor	-1746
häng	-1747
▁vis	-1748
▁werk	-1749
▁struktur	-1750
sk	-1751
▁wollten	-1752
otz	-1753
werk	-1754
▁bitte	-1755
ank	-1756
▁näh	-1757
▁sage	-1758
▁inv	-1759
▁bez	-1760
erweise	-1761
sein	-1762
▁erscha	-1763
ziel	-1764
▁ziel	-1765
▁ju	-1766
▁masch	-1767
▁daher	-1768
▁verr	-1769
▁männer	-1770
▁schwar	-1771
blik	-1772
äten	-1773
▁tut	-1774
▁mathema	-1775
app	-1776
▁lage	-1777
▁erzeu	-1778
▁gebäude	-1779
▁technolog	-1780
annen	-1781
▁tausen	-1782
▁regierung	-1783
iken	-1784
onnen	-1785
▁lehrer	-1786
▁unterstü	-1787
gabe	-1788
zt	-1789
tigkeit	-1790
▁eltern	-1791
▁psych	-1792
▁verfü	-1793
▁weltw	-1794
▁morgen	-1795
▁ändern	-1796
▁damals	-1797
lin	-1798
▁sau	-1799
▁win	-1800
▁prof	-1801
▁unbe	-1802
▁versucht	-1803
gal	-1804
▁gene	-1805
abor	-1806
schr	-1807
reifen	-1808
▁angst	-1809
▁führen	-1810
▁schreiben	-1811
▁18	-1812
▁neur	-1813
völker	-1814
▁kommun	-1815
▁direkt	-1816
▁überhaupt	-1817
▁bab	-1818
▁richt	-1819
▁schau	-1820
▁nächste	-1821
▁leiden	-1822
tzung	-1823
▁fand	-1824
▁meer	-1825
▁zwar	-1826
▁überr	-1827
▁hause	-1828
▁neben	-1829
han	-1830
uer	-1831
ktor	-1832
▁inno	-1833
▁zer	-1834
ismus	-1835
gese	-1836
▁char	-1837
▁mikro	-1838
▁anfang	-1839
▁innov	-1840
▁sicht	-1841
ohn	-1842
weg	-1843
▁fing	-1844
dition	-1845
▁demok	-1846
baren	-1847
▁chem	-1848
denten	-1849
▁gleichen	-1850
ud	-1851
▁öl	-1852
▁trotz	-1853
▁länder	-1854
▁nachdem	-1855
ans	-1856
▁eher	-1857
▁verschw	-1858
▁verändert	-1859
als	-1860
ase	-1861
tte	-1862
▁verd	-1863
▁getan	-1864
▁invest	-1865
zug	-1866
▁ehr	-1867
▁roboter	-1868
▁sh	-1869
haus	-1870
orden	-1871
▁wort	-1872
▁junge	-1873
ren	-1874
aschen	-1875
▁kraft	-1876
91	-1877
aktion	-1878
▁gol	-1879
▁tri	-1880
ziert	-1881
bte	-1882
▁elektr	-1883
rop	-1884
enne	-1885
ängt	-1886
▁dingen	-1887
▁worden	-1888
▁menschliche	-1889
fläche	-1890
▁rad	-1891
▁erklär	-1892
▁finanz	-1893
93	-1894
sto	-1895
nahme	-1896
▁fahr	-1897
▁allem	-1898
▁prozess	-1899
na	-1900
urs	-1901
▁programm	-1902
▁entwicklung	-1903
yn	-1904
▁sieben	-1905
▁archite	-1906
▁part	-1907
▁schick	-1908
orie	-1909
▁fas	-1910
ionen	-1911
▁erle	-1912
▁tief	-1913
indet	-1914
▁falsch	-1915
▁letzte	-1916
ore	-1917
gegen	-1918
▁erre	-1919
▁verh	-1920
▁zahl	-1921
▁relig	-1922
▁fühlen	-1923
ager	-1924
▁geist	-1925
äus	-1926
▁ka	-1927
▁oze	-1928
▁bedeut	-1929
▁dessen	-1930
▁vortrag	-1931
▁gedanken	-1932
▁beste	-1933
▁lässt	-1934
▁on	-1935
aren	-1936
▁vertrau	-1937
ive	-1938
▁40	-1939
▁är	-1940
▁anderer	-1941
▁zweiten	-1942
▁gemeinsam	-1943
ielt	-1944
▁bringt	-1945
▁äl	-1946
▁jed	-1947
▁dun	-1948
▁alter	-1949
eig	-1950
▁kom	-1951
▁pfl	-1952
▁wes	-1953
▁absol	-1954
▁hilfe	-1955
▁publik	-1956
▁sicherheit	-1957
▁kamen	-1958
▁unten	-1959
▁hervor	-1960
▁wochen	-1961
▁staaten	-1962
▁betrachten	-1963
sta	-1964
arbeit	-1965
▁erlau	-1966
lungs	-1967
▁lesen	-1968
▁kranken	-1969
zip	-1970
▁sow	-1971
▁tier	-1972
▁tages	-1973
▁tö	-1974
dete	-1975
▁welches	-1976
91;	-1977
▁12	-1978
▁deu	-1979
▁fer	-1980
▁hol	-1981
▁auss	-1982
▁rück	-1983
▁krieg	-1984
▁jungen	-1985
▁weitere	-1986
93;	-1987
eim	-1988
▁york	-1989
▁go	-1990
hlen	-1991
▁zeich	-1992
▁meines	-1993
▁geschäft	-1994
▁herausforder	-1995
iet	-1996
ügen	-1997
▁sen	-1998
▁zent	-1999
▁grunde	-2000
teten	-2001
▁jedoch	-2002
fiz	-2003
spir	-2004
▁zehn	-2005
stet	-2006
rieden	-2007
▁tiere	-2008
▁pap	-2009
▁eigene	-2010
▁gesicht	-2011
▁kreativ	-2012
▁schließlich	-2013
▁funktionieren	-2014
tho	-2015
▁ris	-2016
▁erfahrung	-2017
zept	-2018
▁deren	-2019
▁publikum	-2020
▁information	-2021
dik	-2022
stum	-2023
eigen	-2024
▁wider	-2025
▁mussten	-2026
▁situ	-2027
ure	-2028
▁25	-2029
bauen	-2030
▁auszu	-2031
▁interessant	-2032
ve	-2033
bau	-2034
innt	-2035
▁trä	-2036
▁zun	-2037
▁genaus	-2038
▁plö	-2039
achtet	-2040
▁erinner	-2041
▁sek	-2042
▁prin	-2043
führen	-2044
sichtlich	-2045
▁erinnern	-2046
inde	-2047
▁völ	-2048
▁team	-2049
anten	-2050
wesen	-2051
ließen	-2052
▁politik	-2053
wär	-2054
blick	-2055
ograf	-2056
▁genauso	-2057
▁acht	-2058
▁sollen	-2059
▁zellen	-2060
▁fliegen	-2061
bung	-2062
▁samm	-2063
annten	-2064
▁boden	-2065
▁zahlen	-2066
▁zweite	-2067
amp	-2068
jähr	-2069
rieb	-2070
▁aufzu	-2071
▁sterben	-2072
kehr	-2073
▁markt	-2074
▁verbunden	-2075
ue	-2076
aler	-2077
cker	-2078
▁defin	-2079
▁falls	-2080
▁guten	-2081
▁zerst	-2082
▁fragte	-2083
reten	-2084
gefühl	-2085
▁exist	-2086
▁thema	-2087
achstum	-2088
▁möglichkeiten	-2089
▁eis	-2090
▁har	-2091
▁führt	-2092
▁schwe	-2093
▁umgeb	-2094
▁solche	-2095
▁entscheiden	-2096
ählen	-2097
entlich	-2098
▁danach	-2099
ala	-2100
▁tage	-2101
▁platz	-2102
cen	-2103
ont	-2104
nahmen	-2105
▁klima	-2106
▁wusste	-2107
ja	-2108
▁neues	-2109
▁inspir	-2110
▁erschaffen	-2111
▁job	-2112
▁lösen	-2113
▁lösung	-2114
▁zug	-2115
▁übr	-2116
▁empf	-2117
gemein	-2118
▁europ	-2119
itze	-2120
▁video	-2121
▁woche	-2122
▁fähigkeit	-2123
elbe	-2124
▁hast	-2125
▁kaufen	-2126
▁bleiben	-2127
▁freunde	-2128
▁schwierig	-2129
▁kri	-2130
immen	-2131
▁wären	-2132
uren	-2133
▁wich	-2134
lossen	-2135
▁zuvor	-2136
▁monate	-2137
▁bü	-2138
itzen	-2139
▁nimmt	-2140
▁gemeinschaft	-2141
▁such	-2142
▁glücklich	-2143
merk	-2144
▁aben	-2145
▁rein	-2146
▁aufge	-2147
▁vergleich	-2148
itiv	-2149
zeigt	-2150
▁technik	-2151
▁überzeu	-2152
falls	-2153
▁mer	-2154
ächst	-2155
▁laufen	-2156
▁familien	-2157
scht	-2158
▁süd	-2159
jekte	-2160
▁extr	-2161
▁plötzlich	-2162
▁intelligen	-2163
ack	-2164
elte	-2165
▁autos	-2166
▁blick	-2167
▁super	-2168
▁beschä	-2169
▁verantwort	-2170
zeuge	-2171
▁benö	-2172
▁indi	-2173
▁langsam	-2174
▁wissenschaftler	-2175
auft	-2176
▁modell	-2177
▁besteht	-2178
▁aussehen	-2179
▁evolution	-2180
igt	-2181
spro	-2182
▁blau	-2183
▁mite	-2184
arbeitet	-2185
▁ding	-2186
▁draußen	-2187
alien	-2188
▁bevölker	-2189
▁verbindung	-2190
alter	-2191
ziehen	-2192
▁mitein	-2193
les	-2194
hren	-2195
▁suchen	-2196
▁gegenüber	-2197
amer	-2198
reck	-2199
▁indu	-2200
reiten	-2201
▁völlig	-2202
▁ä	-2203
riff	-2204
chter	-2205
hören	-2206
▁lern	-2207
▁wahl	-2208
▁extrem	-2209
▁manche	-2210
▁sin	-2211
igten	-2212
▁künstler	-2213
mar	-2214
wirk	-2215
▁bar	-2216
▁lau	-2217
▁not	-2218
▁kont	-2219
gewöhn	-2220
▁ihres	-2221
▁größte	-2222
▁zuerst	-2223
ieten	-2224
▁wachsen	-2225
▁gefunden	-2226
ib	-2227
▁spa	-2228
▁wil	-2229
weisen	-2230
▁labor	-2231
▁möchten	-2232
▁überleben	-2233
▁sex	-2234
kraft	-2235
▁fant	-2236
▁scheint	-2237
▁konzentr	-2238
▁ersch	-2239
▁gewesen	-2240
▁schritt	-2241
▁tradition	-2242
co	-2243
▁bist	-2244
eister	-2245
▁schli	-2246
▁änder	-2247
dungen	-2248
▁allein	-2249
prochen	-2250
▁unseres	-2251
▁kat	-2252
durch	-2253
▁entdeck	-2254
▁verwand	-2255
ile	-2256
▁hinein	-2257
▁erklären	-2258
▁herauszu	-2259
▁hör	-2260
▁raus	-2261
▁jahrhundert	-2262
▁60	-2263
▁dig	-2264
gliche	-2265
▁medik	-2266
▁stelle	-2267
gende	-2268
▁kolle	-2269
mt	-2270
▁technologien	-2271
tag	-2272
äuf	-2273
▁ad	-2274
▁reihe	-2275
▁muster	-2276
▁bewegung	-2277
gaben	-2278
▁molek	-2279
gesetzt	-2280
▁größten	-2281
▁miteinander	-2282
ho	-2283
ochen	-2284
▁moral	-2285
▁überw	-2286
▁digit	-2287
▁erfor	-2288
▁anzahl	-2289
▁transp	-2290
▁beginnt	-2291
▁beschäf	-2292
▁geworden	-2293
▁vergangen	-2294
▁nachdenken	-2295
▁ernst	-2296
▁anstatt	-2297
▁erzählt	-2298
▁erd	-2299
▁kal	-2300
ienen	-2301
zellen	-2302
▁anfangen	-2303
▁tatsache	-2304
▁krankheit	-2305
iff	-2306
jen	-2307
atten	-2308
▁älter	-2309
▁größer	-2310
▁gelernt	-2311
fahr	-2312
line	-2313
ücke	-2314
▁kil	-2315
▁ter	-2316
fort	-2317
▁ans	-2318
ament	-2319
▁nahm	-2320
▁medien	-2321
▁ländern	-2322
zw	-2323
▁phil	-2324
▁stär	-2325
gessen	-2326
äß	-2327
lauf	-2328
▁daraus	-2329
▁richtung	-2330
ity	-2331
ond	-2332
ückt	-2333
otion	-2334
▁anal	-2335
▁genannt	-2336
▁kontroll	-2337
▁verloren	-2338
▁fel	-2339
▁ner	-2340
▁beide	-2341
▁stark	-2342
▁passieren	-2343
ment	-2344
▁beru	-2345
▁sehe	-2346
ator	-2347
samkeit	-2348
▁revolution	-2349
▁durchschnitt	-2350
mung	-2351
wert	-2352
äuft	-2353
▁antwor	-2354
▁niemals	-2355
▁nutz	-2356
tragen	-2357
ikation	-2358
▁physik	-2359
lef	-2360
rum	-2361
▁sonnen	-2362
▁beeinfl	-2363
bten	-2364
▁herr	-2365
▁nord	-2366
▁mache	-2367
▁reise	-2368
▁jemals	-2369
▁mathematik	-2370
ance	-2371
änden	-2372
▁egal	-2373
roffen	-2374
▁verle	-2375
▁faszin	-2376
▁bildung	-2377
gn	-2378
xt	-2379
ame	-2380
lungen	-2381
▁nacht	-2382
▁kleiner	-2383
▁wahrheit	-2384
ese	-2385
▁met	-2386
▁benutzt	-2387
enn	-2388
kle	-2389
ktu	-2390
ative	-2391
▁foto	-2392
▁aufre	-2393
▁einfl	-2394
▁teile	-2395
▁formen	-2396
▁gefähr	-2397
▁kleines	-2398
▁ser	-2399
zogen	-2400
▁tä	-2401
▁staat	-2402
▁hinaus	-2403
iko	-2404
agieren	-2405
▁verwendet	-2406
fol	-2407
▁emotion	-2408
osph	-2409
stein	-2410
▁iden	-2411
fahren	-2412
lassen	-2413
▁prinzip	-2414
▁studenten	-2415
älfte	-2416
▁preis	-2417
fäh	-2418
▁disk	-2419
▁toll	-2420
▁nachzu	-2421
▁bekannt	-2422
▁gezeigt	-2423
ers	-2424
▁80	-2425
▁dna	-2426
elten	-2427
▁lieben	-2428
▁sprach	-2429
imen	-2430
▁kan	-2431
gangen	-2432
▁indivi	-2433
▁aufmerk	-2434
▁dor	-2435
▁links	-2436
▁fanden	-2437
▁individu	-2438
▁schlecht	-2439
amm	-2440
▁blut	-2441
▁gesp	-2442
spiele	-2443
▁bürger	-2444
▁findet	-2445
▁soziale	-2446
roh	-2447
▁tie	-2448
▁gebe	-2449
▁fehler	-2450
▁gebaut	-2451
▁bekommt	-2452
▁großartig	-2453
dent	-2454
▁amerika	-2455
▁entfernt	-2456
▁mitgefühl	-2457
▁schlechte	-2458
▁tür	-2459
▁sonst	-2460
▁forschung	-2461
▁situation	-2462
ian	-2463
iti	-2464
weis	-2465
▁alten	-2466
▁instit	-2467
▁leicht	-2468
ware	-2469
▁regel	-2470
▁richtige	-2471
tu	-2472
▁sym	-2473
▁veröff	-2474
▁stellte	-2475
viel	-2476
änge	-2477
▁stimme	-2478
▁aufgabe	-2479
▁umgebung	-2480
▁gesundheits	-2481
▁vorstellung	-2482
ossen	-2483
unkte	-2484
▁gere	-2485
▁anges	-2486
wirtschaft	-2487
icher	-2488
▁plan	-2489
▁meinung	-2490
▁schrieb	-2491
mu	-2492
reibt	-2493
geführt	-2494
öh	-2495
▁stre	-2496
▁gewalt	-2497
▁bedeutung	-2498
pe	-2499
haft	-2500
▁gegeben	-2501
äss	-2502
rist	-2503
▁urspr	-2504
▁fahren	-2505
▁geboren	-2506
▁th	-2507
▁miss	-2508
▁schä	-2509
▁einfache	-2510
▁metho	-2511
▁strom	-2512
▁präsen	-2513
▁entwicklungs	-2514
▁interessiert	-2515
lten	-2516
▁mitte	-2517
▁rolle	-2518
▁bakter	-2519
▁zeu	-2520
▁männ	-2521
zeitig	-2522
▁moder	-2523
▁länger	-2524
ry	-2525
▁hoffe	-2526
▁mögen	-2527
▁fertig	-2528
▁schmer	-2529
▁sofort	-2530
▁jemanden	-2531
ose	-2532
▁anw	-2533
▁west	-2534
sprechen	-2535
▁erfolgreich	-2536
ument	-2537
▁wand	-2538
▁wind	-2539
▁ozean	-2540
▁hälfte	-2541
▁erreicht	-2542
zep	-2543
▁sc	-2544
spek	-2545
▁ansehen	-2546
▁ähnlich	-2547
digen	-2548
▁kamer	-2549
▁sonne	-2550
▁einfluss	-2551
▁erschein	-2552
▁versuche	-2553
▁offensichtlich	-2554
▁maß	-2555
iesen	-2556
▁bekam	-2557
▁brachte	-2558
▁spricht	-2559
▁genommen	-2560
▁experimen	-2561
▁bewusstsein	-2562
tau	-2563
rift	-2564
tzut	-2565
▁prak	-2566
▁rede	-2567
▁größe	-2568
tzutage	-2569
▁heutzutage	-2570
▁vereinigten	-2571
kre	-2572
krie	-2573
legt	-2574
▁lok	-2575
ins	-2576
▁tod	-2577
ierend	-2578
▁voraus	-2579
▁fortschr	-2580
▁veränderung	-2581
stu	-2582
▁ök	-2583
ales	-2584
▁oper	-2585
itzt	-2586
▁rau	-2587
immel	-2588
nation	-2589
▁setzen	-2590
struktur	-2591
zer	-2592
▁fuß	-2593
iment	-2594
ratie	-2595
wegen	-2596
▁gingen	-2597
▁irgendein	-2598
▁oberfläche	-2599
ängen	-2600
▁diag	-2601
▁online	-2602
▁stimmt	-2603
▁ziehen	-2604
▁erkennt	-2605
▁fantast	-2606
sh	-2607
▁dra	-2608
auern	-2609
eiden	-2610
▁sorgen	-2611
▁absolut	-2612
▁komplett	-2613
▁beziehung	-2614
▁herauszufinden	-2615
▁my	-2616
lage	-2617
▁poten	-2618
▁verurs	-2619
▁einzelne	-2620
oss	-2621
▁john	-2622
itäten	-2623
▁städte	-2624
▁straßen	-2625
▁hoffnung	-2626
ieg	-2627
▁11	-2628
▁schulen	-2629
istan	-2630
▁bald	-2631
▁engl	-2632
▁goog	-2633
abhäng	-2634
▁pflanzen	-2635
▁trotzdem	-2636
▁la	-2637
verb	-2638
wind	-2639
▁papier	-2640
▁wachstum	-2641
▁erwachsen	-2642
▁geschrieben	-2643
▁wann	-2644
▁übrigen	-2645
asen	-2646
▁tot	-2647
asser	-2648
ändig	-2649
▁jung	-2650
▁nennt	-2651
jenigen	-2652
▁bewegt	-2653
▁seiten	-2654
▁generation	-2655
▁fähigkeiten	-2656
▁normalerweise	-2657
▁herausforderung	-2658
sor	-2659
lagen	-2660
tikel	-2661
▁meter	-2662
▁regen	-2663
▁zeige	-2664
▁kompli	-2665
▁regeln	-2666
▁vertei	-2667
ll	-2668
▁et	-2669
schu	-2670
tist	-2671
▁prote	-2672
▁bücher	-2673
▁allgemein	-2674
▁interessante	-2675
dert	-2676
▁ant	-2677
▁sign	-2678
▁gesamte	-2679
▁geschieht	-2680
beh	-2681
▁hy	-2682
igner	-2683
▁abge	-2684
▁visu	-2685
dessen	-2686
▁monat	-2687
▁kannst	-2688
▁maschine	-2689
▁vergessen	-2690
▁gesprochen	-2691
▁internation	-2692
▁sob	-2693
ologen	-2694
▁tragen	-2695
urt	-2696
glie	-2697
äume	-2698
▁car	-2699
schung	-2700
ösen	-2701
▁app	-2702
▁hiv	-2703
ichtet	-2704
▁finde	-2705
▁liegen	-2706
▁ergebnis	-2707
▁verständ	-2708
▁ra	-2709
chan	-2710
▁wör	-2711
▁krei	-2712
essern	-2713
▁firma	-2714
▁machten	-2715
vie	-2716
▁ton	-2717
▁prot	-2718
essour	-2719
arbeiten	-2720
bil	-2721
gru	-2722
lang	-2723
▁speziel	-2724
▁aufmerksamkeit	-2725
▁ca	-2726
uchs	-2727
ister	-2728
ummer	-2729
▁nahe	-2730
▁hinzu	-2731
▁wichtige	-2732
▁vertrauen	-2733
▁dorf	-2734
▁test	-2735
▁jahrz	-2736
▁straße	-2737
▁nachrichten	-2738
▁dachten	-2739
▁realität	-2740
ds	-2741
pa	-2742
reg	-2743
▁16	-2744
▁pe	-2745
alle	-2746
▁ord	-2747
stens	-2748
techn	-2749
▁begr	-2750
▁lauf	-2751
ierungen	-2752
mod	-2753
trä	-2754
üss	-2755
ktiv	-2756
pfer	-2757
▁sim	-2758
▁neun	-2759
wissen	-2760
▁identi	-2761
▁vorbei	-2762
▁bemerken	-2763
itter	-2764
▁leist	-2765
▁verfol	-2766
▁schneller	-2767
▁leidenschaft	-2768
ath	-2769
▁90	-2770
isse	-2771
isst	-2772
▁199	-2773
▁bot	-2774
indungen	-2775
▁zuminde	-2776
▁anschauen	-2777
▁kontrolle	-2778
▁beobachten	-2779
kop	-2780
tzte	-2781
▁and	-2782
▁druck	-2783
▁hab	-2784
daten	-2785
▁produkt	-2786
▁bedeuten	-2787
▁weltweit	-2788
▁gleichzeitig	-2789
▁selt	-2790
▁effek	-2791
▁rechts	-2792
gebracht	-2793
▁wichtiger	-2794
ari	-2795
▁ga	-2796
ferenz	-2797
bildung	-2798
▁innovation	-2799
▁menschheit	-2800
bin	-2801
hand	-2802
sion	-2803
stru	-2804
▁ind	-2805
▁spaß	-2806
▁gruppen	-2807
▁sozialen	-2808
▁demokratie	-2809
▁experiment	-2810
nete	-2811
▁enor	-2812
▁früher	-2813
▁sobald	-2814
▁monaten	-2815
▁ressour	-2816
▁begannen	-2817
ina	-2818
umm	-2819
ilis	-2820
wand	-2821
▁bess	-2822
▁heim	-2823
▁priv	-2824
▁deine	-2825
▁afrikan	-2826
▁jahrzeh	-2827
▁nachhal	-2828
▁passierte	-2829
▁verlassen	-2830
▁gearbeitet	-2831
▁entscheidungen	-2832
to	-2833
▁gutes	-2834
fre	-2835
▁hü	-2836
▁ta	-2837
male	-2838
▁abzu	-2839
▁trau	-2840
ftware	-2841
ograph	-2842
▁denkt	-2843
▁einzelnen	-2844
▁zumindest	-2845
wo	-2846
lex	-2847
ühne	-2848
▁redu	-2849
▁großer	-2850
mpfen	-2851
▁angef	-2852
▁benutz	-2853
▁ernähr	-2854
▁europa	-2855
▁gelegen	-2856
▁studien	-2857
▁arbeitet	-2858
▁gewinnen	-2859
lige	-2860
▁himmel	-2861
▁ermöglich	-2862
▁möglichen	-2863
▁bevölkerung	-2864
▁bri	-2865
▁jap	-2866
▁bestimmt	-2867
sum	-2868
ssen	-2869
eller	-2870
▁arme	-2871
▁zeug	-2872
eitung	-2873
▁erwäh	-2874
▁tagen	-2875
▁übrigens	-2876
▁richtigen	-2877
▁universität	-2878
ull	-2879
schw	-2880
▁biolog	-2881
▁google	-2882
▁verlieren	-2883
ragt	-2884
▁mot	-2885
tiger	-2886
▁stamm	-2887
▁grenzen	-2888
pfen	-2889
▁orte	-2890
schlag	-2891
▁einzu	-2892
▁studie	-2893
▁auswirk	-2894
▁bestimmten	-2895
▁nachzudenken	-2896
win	-2897
tler	-2898
ählt	-2899
produ	-2900
recht	-2901
▁feuer	-2902
▁taten	-2903
▁train	-2904
▁wussten	-2905
▁versuchte	-2906
▁verbessern	-2907
abel	-2908
lern	-2909
rech	-2910
zies	-2911
▁kop	-2912
▁ziv	-2913
▁gebiet	-2914
▁außerdem	-2915
▁san	-2916
▁see	-2917
▁baum	-2918
▁japan	-2919
▁bleibt	-2920
▁videos	-2921
▁bessere	-2922
ith	-2923
▁hig	-2924
▁vol	-2925
masch	-2926
orben	-2927
▁webs	-2928
▁armut	-2929
▁schreck	-2930
▁produzieren	-2931
▁no	-2932
▁bro	-2933
rauch	-2934
▁winz	-2935
▁großes	-2936
▁dadurch	-2937
▁reaktion	-2938
windigkeit	-2939
fik	-2940
atte	-2941
hnung	-2942
ielle	-2943
▁kern	-2944
gendes	-2945
▁david	-2946
▁gerät	-2947
▁sahen	-2948
▁sowohl	-2949
▁entdecken	-2950
▁verbesser	-2951
wür	-2952
▁14	-2953
▁bat	-2954
quenz	-2955
schir	-2956
setzt	-2957
ussen	-2958
sweise	-2959
▁einge	-2960
▁wieso	-2961
▁zugang	-2962
ama	-2963
▁fein	-2964
▁sitzen	-2965
▁nachbar	-2966
ons	-2967
▁af	-2968
artet	-2969
▁uner	-2970
▁behau	-2971
▁gesetz	-2972
ca	-2973
ct	-2974
seh	-2975
orien	-2976
wasser	-2977
▁näher	-2978
▁wechs	-2979
▁bilden	-2980
▁region	-2981
▁erlaubt	-2982
▁geschehen	-2983
flik	-2984
▁karte	-2985
▁landes	-2986
▁tausende	-2987
mo	-2988
▁lag	-2989
▁freu	-2990
▁rund	-2991
nehmer	-2992
▁fisch	-2993
▁gründe	-2994
▁personen	-2995
ub	-2996
▁kür	-2997
▁pil	-2998
▁haut	-2999
tierte	-3000
rad	-3001
öst	-3002
üssel	-3003
▁zufäl	-3004
▁chines	-3005
▁aussieht	-3006
▁vergangenheit	-3007
zte	-3008
▁fü	-3009
▁fühl	-3010
sionen	-3011
▁schei	-3012
▁beispiele	-3013
▁großartige	-3014
▁wirklichkeit	-3015
ande	-3016
feld	-3017
fern	-3018
ühle	-3019
▁häuf	-3020
▁sohn	-3021
osphäre	-3022
▁spielt	-3023
▁schüler	-3024
▁erzeugen	-3025
▁fotograf	-3026
▁unabhäng	-3027
▁diejenigen	-3028
▁tro	-3029
▁deta	-3030
▁enth	-3031
▁dahin	-3032
▁echte	-3033
▁spezies	-3034
▁theorie	-3035
▁gekommen	-3036
▁unmöglich	-3037
iker	-3038
▁gek	-3039
▁anti	-3040
▁gala	-3041
▁wein	-3042
machen	-3043
ierende	-3044
▁firmen	-3045
▁gebracht	-3046
▁sprachen	-3047
▁zusammenh	-3048
ka	-3049
iter	-3050
itär	-3051
▁wün	-3052
▁opti	-3053
werfen	-3054
▁nenne	-3055
ulation	-3056
▁profess	-3057
▁äu	-3058
blich	-3059
tiver	-3060
volle	-3061
▁telef	-3062
▁geheim	-3063
▁erfahren	-3064
▁medikamen	-3065
gi	-3066
zun	-3067
bert	-3068
irur	-3069
ital	-3070
wart	-3071
raten	-3072
▁dien	-3073
uchten	-3074
▁entwe	-3075
▁schla	-3076
▁trans	-3077
▁voller	-3078
▁seltsam	-3079
▁statist	-3080
▁verbinden	-3081
ox	-3082
geh	-3083
▁för	-3084
genie	-3085
orfen	-3086
▁sand	-3087
▁außen	-3088
schluss	-3089
▁irgendwo	-3090
▁nachricht	-3091
▁herstellen	-3092
50	-3093
oph	-3094
ende	-3095
mmern	-3096
▁orten	-3097
zeichnet	-3098
▁ständig	-3099
▁befinden	-3100
▁bakterien	-3101
▁charakter	-3102
▁krankheiten	-3103
▁kr	-3104
seite	-3105
▁alte	-3106
stehen	-3107
änomen	-3108
▁altern	-3109
▁führte	-3110
go	-3111
rab	-3112
▁rom	-3113
▁erwei	-3114
▁galax	-3115
▁keiner	-3116
▁hundert	-3117
▁aufgrund	-3118
▁software	-3119
▁arbeitete	-3120
ed	-3121
ror	-3122
onie	-3123
rise	-3124
▁log	-3125
▁schö	-3126
▁spezi	-3127
▁konzept	-3128
▁globalen	-3129
▁betrachtet	-3130
itu	-3131
ativen	-3132
▁einzig	-3133
▁warten	-3134
ix	-3135
▁wü	-3136
zimmer	-3137
▁präsi	-3138
▁worte	-3139
▁mittler	-3140
▁ursprün	-3141
fs	-3142
eite	-3143
ichter	-3144
▁objekt	-3145
▁welcher	-3146
ürf	-3147
ächen	-3148
▁mäch	-3149
assung	-3150
reitet	-3151
▁ebene	-3152
▁höher	-3153
▁kombin	-3154
sätzlich	-3155
▁ressourcen	-3156
▁bus	-3157
asche	-3158
▁höch	-3159
ometer	-3160
peratur	-3161
tischer	-3162
▁kohlen	-3163
▁ingenie	-3164
▁million	-3165
▁überraschen	-3166
▁amerikanischen	-3167
▁mob	-3168
▁wol	-3169
▁berüh	-3170
▁bezug	-3171
▁riesige	-3172
▁entweder	-3173
az	-3174
mäß	-3175
ball	-3176
grün	-3177
schä	-3178
▁flü	-3179
herap	-3180
▁ökon	-3181
▁hilft	-3182
▁sinne	-3183
ark	-3184
eits	-3185
▁sto	-3186
▁höhe	-3187
▁runter	-3188
▁partner	-3189
▁verständnis	-3190
nü	-3191
▁ker	-3192
teile	-3193
▁lebt	-3194
▁brust	-3195
▁könig	-3196
▁flugzeug	-3197
▁sekunden	-3198
▁antworten	-3199
▁krankenhaus	-3200
fa	-3201
▁198	-3202
▁grü	-3203
▁klin	-3204
mension	-3205
▁bisher	-3206
▁dritte	-3207
▁meeres	-3208
▁notwend	-3209
entlichen	-3210
▁phänomen	-3211
▁grundlegen	-3212
▁kommunikation	-3213
izien	-3214
schul	-3215
trieben	-3216
ingungen	-3217
▁verstanden	-3218
▁architektur	-3219
▁entschieden	-3220
haf	-3221
▁of	-3222
größ	-3223
reib	-3224
▁pau	-3225
▁spre	-3226
▁ebenso	-3227
▁messen	-3228
▁konflik	-3229
▁solchen	-3230
werke	-3231
▁läch	-3232
▁linie	-3233
▁perfe	-3234
▁handeln	-3235
▁nahrung	-3236
▁ordnung	-3237
▁dasselbe	-3238
▁einander	-3239
▁entscheidung	-3240
astrop	-3241
▁fotos	-3242
▁gesamten	-3243
▁bestimmte	-3244
▁wundersch	-3245
licherweise	-3246
▁amerikaner	-3247
hi	-3248
üllen	-3249
ütter	-3250
▁arzt	-3251
wandel	-3252
▁fangen	-3253
▁frieden	-3254
tzten	-3255
stoffe	-3256
ktionen	-3257
▁spiele	-3258
▁dritten	-3259
▁sammeln	-3260
▁ergebnisse	-3261
▁ermöglicht	-3262
hil	-3263
rig	-3264
stes	-3265
▁ach	-3266
▁hum	-3267
stern	-3268
▁bühne	-3269
▁artikel	-3270
▁erklärt	-3271
▁gehirns	-3272
▁vorstell	-3273
▁institution	-3274
zü	-3275
spl	-3276
▁nü	-3277
ghan	-3278
rate	-3279
rier	-3280
ynam	-3281
▁baby	-3282
▁farbe	-3283
▁wesen	-3284
izieren	-3285
▁entdeckt	-3286
▁schönheit	-3287
▁behandlung	-3288
get	-3289
ils	-3290
orn	-3291
ton	-3292
▁exp	-3293
altet	-3294
▁ereig	-3295
▁innen	-3296
▁kampf	-3297
▁unver	-3298
ständig	-3299
▁herzen	-3300
lam	-3301
eisch	-3302
ahrungs	-3303
▁finger	-3304
▁nummer	-3305
▁arbeite	-3306
▁leisten	-3307
▁außerhalb	-3308
▁geschäfts	-3309
▁unterschei	-3310
ps	-3311
▁13	-3312
mann	-3313
▁lust	-3314
▁mars	-3315
▁schm	-3316
▁zeigte	-3317
▁gefragt	-3318
▁verstand	-3319
▁interesse	-3320
eum	-3321
ong	-3322
eitet	-3323
▁naja	-3324
▁name	-3325
▁afghan	-3326
▁arbeits	-3327
▁englisch	-3328
▁geschaffen	-3329
▁untersuchen	-3330
oli	-3331
lose	-3332
ulti	-3333
▁kaum	-3334
▁lebe	-3335
▁quad	-3336
▁beginn	-3337
▁geburt	-3338
▁retten	-3339
▁versor	-3340
▁wörter	-3341
▁schmerz	-3342
▁bestehen	-3343
arf	-3344
üll	-3345
▁ep	-3346
inge	-3347
▁bege	-3348
▁fund	-3349
▁trag	-3350
iellen	-3351
▁dauer	-3352
ssystem	-3353
▁befindet	-3354
▁designer	-3355
▁freiheit	-3356
▁getroffen	-3357
▁verkaufen	-3358
▁organisation	-3359
stä	-3360
äte	-3361
inder	-3362
press	-3363
▁stol	-3364
▁traf	-3365
▁hände	-3366
greifen	-3367
mitteln	-3368
▁gefäng	-3369
▁leider	-3370
▁selben	-3371
▁einkommen	-3372
rän	-3373
▁denk	-3374
ktoren	-3375
zunehmen	-3376
▁handelt	-3377
▁zunächst	-3378
▁außergewöhn	-3379
la	-3380
falt	-3381
üllt	-3382
▁uhr	-3383
▁berg	-3384
▁laut	-3385
▁kreis	-3386
▁gründen	-3387
abr	-3388
kur	-3389
▁zwe	-3390
iegen	-3391
räfte	-3392
▁mark	-3393
altung	-3394
▁tisch	-3395
▁nieder	-3396
▁schaut	-3397
▁verhin	-3398
▁herunter	-3399
▁klimawandel	-3400
▁herausfinden	-3401
kar	-3402
▁deut	-3403
▁hirn	-3404
▁hält	-3405
▁verdien	-3406
▁national	-3407
▁wunderbar	-3408
▁iran	-3409
gebaut	-3410
laufen	-3411
schirm	-3412
▁belie	-3413
▁geräu	-3414
▁traum	-3415
frieden	-3416
▁behaup	-3417
▁chance	-3418
▁ehrlich	-3419
▁deswegen	-3420
▁einzigen	-3421
bed	-3422
cks	-3423
mpf	-3424
öse	-3425
wick	-3426
▁dro	-3427
▁kol	-3428
▁sod	-3429
seits	-3430
stück	-3431
▁hall	-3432
▁motiv	-3433
▁optim	-3434
▁plast	-3435
erstoff	-3436
schiede	-3437
▁indust	-3438
ids	-3439
▁ei	-3440
ahlt	-3441
▁arg	-3442
eisen	-3443
▁verz	-3444
ierter	-3445
▁läuft	-3446
▁jahres	-3447
▁erstens	-3448
▁methode	-3449
▁unglaubliche	-3450
vel	-3451
anda	-3452
▁dür	-3453
▁pop	-3454
itann	-3455
▁büro	-3456
▁park	-3457
▁autom	-3458
▁gespr	-3459
▁hörte	-3460
▁wohin	-3461
▁bedürf	-3462
▁chirur	-3463
▁seines	-3464
▁schwarz	-3465
▁erzählte	-3466
▁kollegen	-3467
▁auswirkungen	-3468
rt	-3469
bahn	-3470
riere	-3471
äuser	-3472
▁aktu	-3473
▁bill	-3474
▁letztes	-3475
▁einfachen	-3476
▁zeitpunkt	-3477
▁unterstützen	-3478
▁bu	-3479
gere	-3480
plan	-3481
stag	-3482
▁blo	-3483
▁fen	-3484
▁cool	-3485
rochen	-3486
▁beweg	-3487
▁suche	-3488
▁eigent	-3489
▁worten	-3490
▁ebenfalls	-3491
▁erstaunlich	-3492
▁fortschritt	-3493
▁landwirtschaft	-3494
bli	-3495
▁201	-3496
▁rot	-3497
▁gele	-3498
nungen	-3499
▁klasse	-3500
▁punkte	-3501
▁gestellt	-3502
▁religion	-3503
eid	-3504
ahmen	-3505
schte	-3506
▁blog	-3507
▁hart	-3508
▁kontin	-3509
▁stunde	-3510
▁biologie	-3511
▁erwarten	-3512
▁untersuch	-3513
▁1,	-3514
▁21	-3515
webe	-3516
▁bal	-3517
artig	-3518
▁heran	-3519
brechen	-3520
zusagen	-3521
▁anwend	-3522
▁globale	-3523
samm	-3524
▁pal	-3525
krieg	-3526
räsen	-3527
▁frem	-3528
▁islam	-3529
▁betrie	-3530
▁verste	-3531
arbeiter	-3532
▁position	-3533
▁angefangen	-3534
▁materialien	-3535
▁regierungen	-3536
▁lo	-3537
ffer	-3538
▁tru	-3539
▁ausl	-3540
▁hung	-3541
stände	-3542
▁abend	-3543
▁äußer	-3544
barkeit	-3545
▁geschah	-3546
▁stimmen	-3547
▁erinnere	-3548
▁produkte	-3549
▁schicken	-3550
▁schützen	-3551
ai	-3552
▁woh	-3553
▁ausw	-3554
▁stei	-3555
▁wohn	-3556
▁gewal	-3557
▁nahmen	-3558
▁sodass	-3559
▁mehrere	-3560
▁ausdruck	-3561
▁heutigen	-3562
▁lösungen	-3563
▁begeister	-3564
▁behandeln	-3565
▁öffentlichen	-3566
ehme	-3567
▁del	-3568
▁hor	-3569
▁säu	-3570
samen	-3571
passen	-3572
▁sozial	-3573
▁verfüg	-3574
▁systeme	-3575
▁erfunden	-3576
apt	-3577
kam	-3578
ober	-3579
rael	-3580
▁mond	-3581
▁stab	-3582
▁kenne	-3583
▁spekt	-3584
▁werte	-3585
itannien	-3586
▁schlimm	-3587
▁telefon	-3588
▁zustand	-3589
möglichen	-3590
▁hunderte	-3591
▁verrückt	-3592
geht	-3593
stre	-3594
▁mär	-3595
leist	-3596
organ	-3597
wärts	-3598
▁inse	-3599
indust	-3600
selben	-3601
▁gehir	-3602
▁liebl	-3603
▁fallen	-3604
▁netzwerk	-3605
▁beziehungen	-3606
äst	-3607
üst	-3608
buch	-3609
takt	-3610
▁tal	-3611
▁auge	-3612
▁jene	-3613
▁guter	-3614
▁rechte	-3615
▁strate	-3616
ierenden	-3617
▁zweitens	-3618
▁jahrhunderts	-3619
▁konzentrieren	-3620
leg	-3621
bewer	-3622
hilfe	-3623
▁beit	-3624
▁vern	-3625
▁autor	-3626
▁fällt	-3627
▁instr	-3628
▁ganzes	-3629
▁militär	-3630
▁rechten	-3631
industrie	-3632
▁nahrungs	-3633
▁schlüssel	-3634
▁eigenschaften	-3635
ami	-3636
zut	-3637
▁sm	-3638
iete	-3639
▁bud	-3640
ragen	-3641
▁ball	-3642
tember	-3643
▁schlag	-3644
gefunden	-3645
▁projekte	-3646
geschichte	-3647
▁wiederhol	-3648
▁wichtigste	-3649
oge	-3650
sage	-3651
▁500	-3652
▁tim	-3653
▁wun	-3654
etzen	-3655
▁grad	-3656
▁absch	-3657
▁neuer	-3658
alismus	-3659
▁aussch	-3660
▁farben	-3661
▁plastik	-3662
▁schluss	-3663
▁version	-3664
▁herzustellen	-3665
ifor	-3666
▁las	-3667
alist	-3668
reise	-3669
ühlen	-3670
▁lond	-3671
▁tanz	-3672
haltung	-3673
▁sommer	-3674
▁gedacht	-3675
▁stattdessen	-3676
ket	-3677
▁zi	-3678
afft	-3679
▁hey	-3680
▁ten	-3681
itive	-3682
▁wege	-3683
▁abhäng	-3684
▁israel	-3685
▁selten	-3686
▁jemandem	-3687
britannien	-3688
▁bemerkens	-3689
kan	-3690
mon	-3691
▁km	-3692
▁darf	-3693
▁fett	-3694
▁gehe	-3695
antwor	-3696
▁titel	-3697
▁risiko	-3698
▁erleben	-3699
▁industrie	-3700
▁werkzeuge	-3701
keln	-3702
▁jün	-3703
▁umf	-3704
inken	-3705
scher	-3706
▁hört	-3707
▁kauf	-3708
▁mass	-3709
▁resp	-3710
▁wett	-3711
teilen	-3712
▁komme	-3713
▁erfahr	-3714
▁wenige	-3715
▁zeiten	-3716
▁fenster	-3717
▁medikamente	-3718
öpf	-3719
othe	-3720
▁gil	-3721
istor	-3722
ittel	-3723
▁loch	-3724
liegen	-3725
raucht	-3726
▁armen	-3727
▁liste	-3728
▁ahnung	-3729
▁westen	-3730
▁gegangen	-3731
▁wichtigsten	-3732
▁verantwortung	-3733
bi	-3734
hy	-3735
▁gu	-3736
▁fok	-3737
iforn	-3738
▁high	-3739
▁angeb	-3740
▁niedr	-3741
▁gering	-3742
▁massen	-3743
▁schutz	-3744
▁terror	-3745
▁öffnen	-3746
▁it	-3747
ickt	-3748
frika	-3749
▁dopp	-3750
▁inte	-3751
▁koll	-3752
▁nerv	-3753
vollen	-3754
▁lernte	-3755
▁mechan	-3756
▁philos	-3757
▁erzeugt	-3758
▁begonnen	-3759
alisierung	-3760
▁folgendes	-3761
▁gefängnis	-3762
▁komplexität	-3763
▁veränderungen	-3764
bur	-3765
▁erl	-3766
mente	-3767
ochter	-3768
▁chris	-3769
▁fluss	-3770
▁infra	-3771
▁freude	-3772
▁entfern	-3773
▁zusammenhang	-3774
bol	-3775
maß	-3776
ron	-3777
gibt	-3778
ourn	-3779
▁196	-3780
▁atm	-3781
▁mut	-3782
▁web	-3783
▁rech	-3784
▁motor	-3785
▁osten	-3786
▁frühen	-3787
▁kamera	-3788
▁bestand	-3789
▁größere	-3790
▁positiv	-3791
▁größeren	-3792
ums	-3793
osau	-3794
stau	-3795
▁tum	-3796
dings	-3797
losen	-3798
örung	-3799
schutz	-3800
▁weiss	-3801
▁wandel	-3802
▁endlich	-3803
▁entschied	-3804
▁entstehen	-3805
▁verfügung	-3806
geschlossen	-3807
▁großbritannien	-3808
cy	-3809
▁24	-3810
▁ag	-3811
gien	-3812
künf	-3813
maßen	-3814
▁vorh	-3815
bieren	-3816
▁gross	-3817
▁klass	-3818
▁dunkel	-3819
▁elektron	-3820
▁verbringen	-3821
▁auseinander	-3822
▁kreativität	-3823
je	-3824
ikas	-3825
üsse	-3826
auert	-3827
krank	-3828
▁zelle	-3829
▁fühlte	-3830
▁jugend	-3831
▁langen	-3832
▁london	-3833
▁museum	-3834
▁trifft	-3835
▁maschinen	-3836
▁sicherlich	-3837
▁erfahrungen	-3838
anke	-3839
tens	-3840
ährt	-3841
▁dok	-3842
▁mex	-3843
▁brot	-3844
▁gang	-3845
▁seien	-3846
▁typen	-3847
▁ärzte	-3848
entwick	-3849
▁knochen	-3850
els	-3851
sse	-3852
▁fo	-3853
geln	-3854
lück	-3855
▁300	-3856
▁daß	-3857
gress	-3858
rifft	-3859
wechs	-3860
▁glas	-3861
▁temp	-3862
▁legen	-3863
▁materie	-3864
▁verhält	-3865
▁zivilis	-3866
▁neuronen	-3867
▁standard	-3868
ote	-3869
ätze	-3870
▁con	-3871
meter	-3872
▁bäume	-3873
ulieren	-3874
▁spitze	-3875
▁waffen	-3876
▁gefühle	-3877
▁kompliz	-3878
▁tochter	-3879
▁erlauben	-3880
imp	-3881
prü	-3882
oper	-3883
▁red	-3884
▁tem	-3885
ießen	-3886
ühren	-3887
▁aufw	-3888
▁umzu	-3889
tation	-3890
▁desto	-3891
drücken	-3892
▁eigenes	-3893
▁konstru	-3894
▁existiert	-3895
▁x	-3896
▁as	-3897
mmun	-3898
▁zäh	-3899
fisch	-3900
▁echt	-3901
▁fran	-3902
▁spür	-3903
▁vari	-3904
▁genom	-3905
▁sauber	-3906
▁wählen	-3907
▁fernsehen	-3908
▁weiterhin	-3909
pfl	-3910
ttet	-3911
üben	-3912
▁imp	-3913
▁sub	-3914
▁zit	-3915
ausen	-3916
▁habt	-3917
▁merk	-3918
▁eröff	-3919
▁fühle	-3920
▁tolle	-3921
▁virus	-3922
▁tieren	-3923
▁dorthin	-3924
▁perspek	-3925
▁zentrum	-3926
▁deutlich	-3927
▁repräsen	-3928
▁kilometer	-3929
▁produziert	-3930
▁sauerstoff	-3931
▁unterschiede	-3932
▁kontrollieren	-3933
▁gesellschaften	-3934
▁geschwindigkeit	-3935
ana	-3936
rah	-3937
▁jo	-3938
angt	-3939
aktiv	-3940
stadt	-3941
▁face	-3942
▁fühlt	-3943
▁somit	-3944
▁häufig	-3945
▁kostet	-3946
▁erinnert	-3947
▁infrastruktur	-3948
▁interessanter	-3949
up	-3950
abt	-3951
üch	-3952
▁ken	-3953
▁kos	-3954
▁wal	-3955
▁heil	-3956
▁lasst	-3957
▁schöne	-3958
▁vermut	-3959
minister	-3960
▁modernen	-3961
▁konferenz	-3962
▁aufgenommen	-3963
zy	-3964
fil	-3965
gor	-3966
ool	-3967
▁ah	-3968
▁ed	-3969
▁yo	-3970
▁eth	-3971
▁wär	-3972
ttern	-3973
▁atom	-3974
▁holz	-3975
▁ließ	-3976
▁nehme	-3977
▁todes	-3978
ierungs	-3979
▁besuch	-3980
▁richard	-3981
▁einfacher	-3982
▁allerdings	-3983
▁verursacht	-3984
▁ermöglichen	-3985
arch	-3986
lege	-3987
ling	-3988
▁kir	-3989
appen	-3990
bruch	-3991
laden	-3992
digung	-3993
ielten	-3994
lieben	-3995
▁fällen	-3996
▁haupts	-3997
▁reicht	-3998
▁result	-3999
▁rücken	-4000
▁schrift	-4001
▁nächstes	-4002
▁geschafft	-4003
▁universums	-4004
▁gelegenheit	-4005
par	-4006
▁ku	-4007
ames	-4008
nissen	-4009
▁besor	-4010
▁wirst	-4011
▁erstes	-4012
▁reisen	-4013
▁einsatz	-4014
▁genutzt	-4015
▁klassen	-4016
▁wahrneh	-4017
▁hoffentlich	-4018
▁verbindungen	-4019
▁entwicklungsl	-4020
arm	-4021
▁hom	-4022
▁neg	-4023
▁weib	-4024
ations	-4025
▁zentr	-4026
osystem	-4027
spielen	-4028
▁gewöhn	-4029
▁dennoch	-4030
▁industr	-4031
▁spreche	-4032
alisieren	-4033
dimension	-4034
▁gewonnen	-4035
▁karriere	-4036
▁verhaltens	-4037
▁investieren	-4038
gern	-4039
leun	-4040
stab	-4041
▁feld	-4042
treten	-4043
▁halte	-4044
▁hielt	-4045
▁kennt	-4046
setzung	-4047
▁unsicht	-4048
▁aufgaben	-4049
▁riesigen	-4050
▁stellten	-4051
▁politische	-4052
▁afghanistan	-4053
ac	-4054
ford	-4055
▁aids	-4056
▁erhö	-4057
▁golf	-4058
ration	-4059
▁stolz	-4060
vention	-4061
▁drehen	-4062
verständ	-4063
▁entlang	-4064
▁kämpfen	-4065
▁botschaft	-4066
▁vollkommen	-4067
▁beeinflusst	-4068
▁lebensmittel	-4069
ged	-4070
hei	-4071
hle	-4072
ley	-4073
iden	-4074
isser	-4075
tiere	-4076
zlich	-4077
▁geor	-4078
▁müll	-4079
modell	-4080
tigung	-4081
▁dynam	-4082
▁einst	-4083
▁zusch	-4084
▁verwir	-4085
zwischen	-4086
▁brauchte	-4087
▁freunden	-4088
▁erforschen	-4089
▁produktion	-4090
▁temperatur	-4091
▁politischen	-4092
▁unternehmer	-4093
hör	-4094
mel	-4095
▁mc	-4096
agne	-4097
book	-4098
fest	-4099
ogel	-4100
▁che	-4101
▁mel	-4102
hause	-4103
hemen	-4104
▁band	-4105
formen	-4106
steller	-4107
▁ansatz	-4108
▁bitten	-4109
▁linken	-4110
▁wunsch	-4111
maschine	-4112
▁sekunde	-4113
▁irgendwann	-4114
ägt	-4115
ingu	-4116
text	-4117
▁bru	-4118
▁sal	-4119
sagen	-4120
▁basis	-4121
▁fragt	-4122
▁roten	-4123
tisches	-4124
▁bienen	-4125
▁passen	-4126
▁selber	-4127
zeichnen	-4128
▁wiederum	-4129
▁reagieren	-4130
▁ökosystem	-4131
▁letztendlich	-4132
gier	-4133
fälle	-4134
teles	-4135
▁stil	-4136
▁niger	-4137
▁roman	-4138
bereich	-4139
▁berühm	-4140
▁vision	-4141
▁begriff	-4142
▁dagegen	-4143
▁fernseh	-4144
▁intervie	-4145
▁katastrop	-4146
▁wunderschön	-4147
vis	-4148
▁nö	-4149
ckte	-4150
ente	-4151
▁end	-4152
erken	-4153
folge	-4154
heben	-4155
ilien	-4156
▁expl	-4157
▁leid	-4158
untern	-4159
▁entspr	-4160
▁meilen	-4161
▁demokra	-4162
▁patient	-4163
▁verkehr	-4164
▁effizien	-4165
▁gemeinde	-4166
▁verkauft	-4167
▁benötigen	-4168
anne	-4169
▁port	-4170
▁steu	-4171
artige	-4172
▁davor	-4173
▁dreht	-4174
▁erzie	-4175
▁schäd	-4176
tzungen	-4177
▁diagno	-4178
▁kurzem	-4179
▁werfen	-4180
▁schafft	-4181
▁werkzeug	-4182
wissenschaft	-4183
▁intelligenz	-4184
eff	-4185
▁wa	-4186
amin	-4187
▁dom	-4188
markt	-4189
▁fach	-4190
▁irak	-4191
▁nähe	-4192
▁orig	-4193
▁akzep	-4194
▁begeg	-4195
▁metap	-4196
▁stoff	-4197
▁töten	-4198
▁virtu	-4199
stellte	-4200
▁kunden	-4201
▁ökonom	-4202
▁stecken	-4203
▁ke	-4204
izei	-4205
krebs	-4206
▁journ	-4207
▁kaffe	-4208
▁multi	-4209
▁konsum	-4210
▁sterne	-4211
▁mitglie	-4212
▁verrück	-4213
▁beantwor	-4214
▁dieselbe	-4215
▁wirtschafts	-4216
asi	-4217
gest	-4218
netz	-4219
twas	-4220
▁20.	-4221
▁dün	-4222
▁sil	-4223
mögen	-4224
ätsel	-4225
▁arab	-4226
umente	-4227
▁austr	-4228
▁gaben	-4229
▁klang	-4230
jährige	-4231
änglich	-4232
▁drogen	-4233
▁molekü	-4234
▁religi	-4235
▁identit	-4236
▁benötigt	-4237
gri	-4238
▁saß	-4239
neten	-4240
▁halb	-4241
mutter	-4242
▁beruf	-4243
▁solch	-4244
spieler	-4245
tierten	-4246
▁ändert	-4247
chtigkeit	-4248
▁gefangen	-4249
▁großteil	-4250
▁vielfalt	-4251
▁sozusagen	-4252
▁natürliche	-4253
abe	-4254
▁ev	-4255
digt	-4256
enze	-4257
tert	-4258
▁mem	-4259
▁mos	-4260
▁ske	-4261
▁tex	-4262
▁zut	-4263
ildet	-4264
▁hund	-4265
testen	-4266
▁starb	-4267
▁hinweg	-4268
▁buchstä	-4269
▁relativ	-4270
▁tausend	-4271
▁umgehen	-4272
▁effektiv	-4273
▁behandelt	-4274
▁erstellen	-4275
▁beschäftigt	-4276
opp	-4277
haben	-4278
hafte	-4279
teilt	-4280
▁dick	-4281
gruppe	-4282
quenzen	-4283
osaurier	-4284
▁fleisch	-4285
▁geführt	-4286
▁kontakt	-4287
▁zuhause	-4288
▁ausbildung	-4289
▁bedingungen	-4290
▁entwickelten	-4291
▁zusammenarbeit	-4292
av	-4293
otyp	-4294
ologe	-4295
▁gold	-4296
▁lief	-4297
▁paten	-4298
▁solar	-4299
zusehen	-4300
▁klingt	-4301
▁vorber	-4302
▁zukünf	-4303
▁diskuss	-4304
▁männern	-4305
▁worüber	-4306
zubringen	-4307
▁insekten	-4308
▁meistens	-4309
▁möglicherweise	-4310
lan	-4311
rup	-4312
fekt	-4313
▁000	-4314
halte	-4315
ichts	-4316
stimm	-4317
zität	-4318
▁2000	-4319
▁dreh	-4320
gorith	-4321
heorie	-4322
▁lautet	-4323
▁schwei	-4324
jährigen	-4325
▁drittel	-4326
▁facebook	-4327
▁kaliforn	-4328
▁überzeugt	-4329
▁überzeugen	-4330
▁hintergrund	-4331
bew	-4332
iell	-4333
wood	-4334
▁bio	-4335
▁syn	-4336
dingt	-4337
▁bank	-4338
proble	-4339
▁colle	-4340
▁freiw	-4341
▁laden	-4342
▁sport	-4343
teilung	-4344
▁steigen	-4345
▁verkauf	-4346
▁besseren	-4347
▁gegensei	-4348
▁weiteres	-4349
richtungen	-4350
▁beeinflussen	-4351
▁durchgeführt	-4352
▁herausgefunden	-4353
bank	-4354
▁astr	-4355
▁ehem	-4356
zeiten	-4357
▁stein	-4358
▁erster	-4359
▁mitten	-4360
schlagen	-4361
▁depress	-4362
▁gelangen	-4363
▁gewissen	-4364
▁verdienen	-4365
▁atmosphäre	-4366
▁strukturen	-4367
▁organisationen	-4368
ov	-4369
del	-4370
met	-4371
rag	-4372
ille	-4373
ufen	-4374
▁150	-4375
ichen	-4376
igung	-4377
platz	-4378
tiker	-4379
▁getr	-4380
▁gilt	-4381
▁rand	-4382
gleich	-4383
schule	-4384
▁angel	-4385
▁angew	-4386
▁hohen	-4387
▁jungs	-4388
▁laufe	-4389
fiziert	-4390
▁integr	-4391
▁geschle	-4392
▁objekte	-4393
▁polizei	-4394
▁unglück	-4395
▁besitzen	-4396
▁bezahlen	-4397
▁eindruck	-4398
▁scheinen	-4399
▁weiteren	-4400
▁verfolgen	-4401
▁veröffent	-4402
▁zufrieden	-4403
▁buchstäblich	-4404
▁amerikanische	-4405
ara	-4406
urm	-4407
▁cl	-4408
▁fei	-4409
▁ign	-4410
aptop	-4411
ement	-4412
werte	-4413
▁schlau	-4414
▁nochmal	-4415
▁zufällig	-4416
▁entwerfen	-4417
▁unbedingt	-4418
▁wettbewer	-4419
▁wunderbare	-4420
▁vollständig	-4421
▁kommunizieren	-4422
lü	-4423
▁üb	-4424
▁szen	-4425
gramme	-4426
▁liter	-4427
▁sitzt	-4428
▁vogel	-4429
▁gestern	-4430
▁kümmern	-4431
▁qualität	-4432
▁schwarze	-4433
ungssystem	-4434
▁fundament	-4435
▁gestalten	-4436
▁philosoph	-4437
▁schließen	-4438
▁augenblick	-4439
▁wesentlichen	-4440
▁gä	-4441
illi	-4442
inne	-4443
jahr	-4444
ttel	-4445
▁inn	-4446
macht	-4447
▁city	-4448
▁jobs	-4449
▁flüss	-4450
▁gefäl	-4451
▁masse	-4452
▁minde	-4453
▁sogen	-4454
sichtig	-4455
▁restau	-4456
▁rätsel	-4457
▁überras	-4458
▁entsteht	-4459
▁1.	-4460
▁vö	-4461
eien	-4462
klus	-4463
▁cha	-4464
▁ehe	-4465
auber	-4466
▁fabr	-4467
▁prim	-4468
▁russ	-4469
▁babys	-4470
▁brenn	-4471
▁ignor	-4472
▁könnt	-4473
▁analys	-4474
▁bedroh	-4475
▁histor	-4476
▁nerven	-4477
▁steckt	-4478
▁aktivität	-4479
▁schwester	-4480
▁vergleichen	-4481
▁unterstützung	-4482
▁veröffentlicht	-4483
kn	-4484
ban	-4485
sinn	-4486
frage	-4487
terie	-4488
▁bloß	-4489
▁wald	-4490
▁sowie	-4491
schauen	-4492
▁bauern	-4493
▁haufen	-4494
▁lieber	-4495
richtung	-4496
▁gesetze	-4497
▁irgende	-4498
▁perfekt	-4499
▁teilchen	-4500
▁persönlich	-4501
▁verbreitet	-4502
▁übertragen	-4503
▁beschreiben	-4504
ada	-4505
dit	-4506
far	-4507
▁tw	-4508
bewe	-4509
ächt	-4510
▁les	-4511
▁seh	-4512
▁bett	-4513
▁null	-4514
reffen	-4515
▁abges	-4516
▁affen	-4517
▁furch	-4518
▁studi	-4519
▁woher	-4520
▁berech	-4521
▁christ	-4522
▁dienst	-4523
▁einsch	-4524
▁erhält	-4525
▁themen	-4526
▁zurückzu	-4527
▁problemen	-4528
▁vermutlich	-4529
▁irgendetwas	-4530
amb	-4531
ram	-4532
▁ac	-4533
onom	-4534
▁nan	-4535
▁usw	-4536
▁wik	-4537
▁sexu	-4538
▁text	-4539
▁wild	-4540
▁aufst	-4541
▁demon	-4542
▁hängt	-4543
▁karten	-4544
▁liefer	-4545
▁rahmen	-4546
▁symbol	-4547
▁elektro	-4548
▁beschleun	-4549
▁bildschirm	-4550
▁gefährlich	-4551
▁dinosaurier	-4552
▁kohlenstoff	-4553
▁hauptsächlich	-4554
ruf	-4555
unt	-4556
zur	-4557
▁fak	-4558
▁fle	-4559
träge	-4560
▁impf	-4561
▁klei	-4562
afrika	-4563
istenz	-4564
▁extra	-4565
▁setzt	-4566
▁neugier	-4567
▁normale	-4568
▁erwartet	-4569
▁experten	-4570
▁verhindern	-4571
dru	-4572
▁ol	-4573
ante	-4574
ramm	-4575
▁400	-4576
▁asp	-4577
▁bie	-4578
▁col	-4579
▁prü	-4580
jekten	-4581
▁frank	-4582
▁franz	-4583
▁mobil	-4584
▁symme	-4585
▁total	-4586
achtung	-4587
▁zucker	-4588
▁falsche	-4589
▁schnitt	-4590
▁spieler	-4591
▁nützlich	-4592
▁milliarde	-4593
▁vorhanden	-4594
by	-4595
dia	-4596
adem	-4597
▁hyp	-4598
frist	-4599
▁getö	-4600
▁gras	-4601
atisch	-4602
▁bewir	-4603
▁konse	-4604
▁weder	-4605
herapie	-4606
zeichen	-4607
▁wächst	-4608
alisiert	-4609
▁zeichen	-4610
▁betrifft	-4611
▁angesehen	-4612
▁präsident	-4613
technologie	-4614
▁experimente	-4615
▁investition	-4616
▁interessieren	-4617
dy	-4618
pre	-4619
▁ap	-4620
▁rä	-4621
fter	-4622
idem	-4623
▁amp	-4624
▁tue	-4625
trieb	-4626
▁radik	-4627
organis	-4628
▁mütter	-4629
▁element	-4630
▁kontext	-4631
▁modelle	-4632
▁schwein	-4633
▁forschungs	-4634
kr	-4635
ieß	-4636
▁ki	-4637
fach	-4638
iven	-4639
▁sep	-4640
▁bekä	-4641
▁ecke	-4642
▁intu	-4643
▁prop	-4644
▁kurze	-4645
geladen	-4646
▁geräte	-4647
▁gewinn	-4648
▁glaubt	-4649
▁korrup	-4650
▁lachen	-4651
▁testen	-4652
programm	-4653
▁einiger	-4654
▁entschl	-4655
▁gedanke	-4656
▁geschen	-4657
▁morgens	-4658
▁kindheit	-4659
▁leistung	-4660
▁identität	-4661
▁verbracht	-4662
▁begeistert	-4663
▁verwandeln	-4664
▁hergestellt	-4665
gl	-4666
gs	-4667
gyp	-4668
hese	-4669
▁bom	-4670
▁nas	-4671
▁tor	-4672
hingt	-4673
▁halt	-4674
▁ment	-4675
▁post	-4676
▁roll	-4677
werten	-4678
▁beine	-4679
▁drama	-4680
▁holen	-4681
▁gewebe	-4682
▁schaff	-4683
▁zimmer	-4684
▁bildern	-4685
▁erzähle	-4686
▁gewisser	-4687
▁kürzlich	-4688
▁praktisch	-4689
▁restauran	-4690
▁verlangen	-4691
▁eingesetzt	-4692
▁verbreiten	-4693
▁kalifornien	-4694
pen	-4695
zäh	-4696
band	-4697
esch	-4698
pfel	-4699
▁ruh	-4700
deten	-4701
▁stift	-4702
meister	-4703
▁dürfen	-4704
▁echten	-4705
▁planet	-4706
stellten	-4707
▁begrenz	-4708
▁mission	-4709
▁städten	-4710
▁forscher	-4711
▁ungewöhn	-4712
▁einsetzen	-4713
läss	-4714
serv	-4715
▁ass	-4716
▁pen	-4717
▁hohe	-4718
▁zell	-4719
▁teuer	-4720
hington	-4721
▁10.000	-4722
▁heimat	-4723
▁riesen	-4724
▁schimp	-4725
▁reichen	-4726
▁schlimmer	-4727
▁interagieren	-4728
lös	-4729
ole	-4730
vin	-4731
▁cy	-4732
▁ox	-4733
sich	-4734
▁emp	-4735
▁gas	-4736
▁ill	-4737
▁wow	-4738
usion	-4739
▁boot	-4740
▁grös	-4741
▁kreu	-4742
▁paul	-4743
▁volk	-4744
atoren	-4745
zeugen	-4746
▁nutzt	-4747
▁parad	-4748
▁tiefe	-4749
▁ausgeb	-4750
▁bieten	-4751
▁laptop	-4752
▁norden	-4753
▁steuer	-4754
▁alleine	-4755
▁ameisen	-4756
▁anderem	-4757
▁fragten	-4758
▁schönen	-4759
▁bestimmen	-4760
▁lieblings	-4761
▁september	-4762
▁washington	-4763
▁institutionen	-4764
▁verantwortlich	-4765
ens	-4766
kor	-4767
rid	-4768
lett	-4769
test	-4770
▁pfer	-4771
▁stat	-4772
▁umge	-4773
▁bruder	-4774
▁gehabt	-4775
▁college	-4776
▁gewisse	-4777
▁normalen	-4778
▁schimpan	-4779
▁soldaten	-4780
▁definition	-4781
▁erkenntnis	-4782
▁perspektive	-4783
dige	-4784
▁rie	-4785
▁ven	-4786
nimmt	-4787
▁kogn	-4788
▁satz	-4789
kehren	-4790
▁weißt	-4791
schrift	-4792
▁beteil	-4793
▁intens	-4794
▁schlie	-4795
▁england	-4796
▁steuern	-4797
▁mögliche	-4798
▁zunehmen	-4799
▁interview	-4800
▁schwimmen	-4801
▁interaktion	-4802
▁wahrnehmung	-4803
▁öffentlichkeit	-4804
von	-4805
▁35	-4806
sätz	-4807
▁ban	-4808
▁deb	-4809
▁tab	-4810
▁wäh	-4811
reite	-4812
schlä	-4813
▁stau	-4814
▁ägyp	-4815
▁block	-4816
▁filme	-4817
▁unend	-4818
▁wahre	-4819
▁wisst	-4820
gegeben	-4821
▁nannte	-4822
▁bekamen	-4823
▁getötet	-4824
▁welchen	-4825
ologische	-4826
▁aufhören	-4827
stellungen	-4828
▁individuen	-4829
▁erstaunliche	-4830
▁verschwinden	-4831
skop	-4832
▁anh	-4833
▁mess	-4834
▁sitz	-4835
▁beloh	-4836
▁lernt	-4837
▁musli	-4838
▁opfer	-4839
ständen	-4840
▁gefahr	-4841
▁weißen	-4842
ungskraft	-4843
▁gehalten	-4844
▁komplexe	-4845
▁versuchten	-4846
▁0	-4847
sal	-4848
▁ros	-4849
fische	-4850
iertes	-4851
▁disku	-4852
▁häuser	-4853
▁bemerkt	-4854
▁charles	-4855
▁fördern	-4856
▁gehirne	-4857
▁genauer	-4858
▁gewicht	-4859
▁moleküle	-4860
▁gegenteil	-4861
▁mittleren	-4862
▁grundlegende	-4863
gro	-4864
pie	-4865
gerät	-4866
tigte	-4867
▁drin	-4868
▁pingu	-4869
▁viren	-4870
▁dauert	-4871
ographie	-4872
▁elektri	-4873
▁gelesen	-4874
▁täglich	-4875
▁vorteil	-4876
▁algorith	-4877
▁verbindet	-4878
▁verfügbar	-4879
▁mindestens	-4880
▁organismen	-4881
wa	-4882
för	-4883
tex	-4884
▁45	-4885
tiges	-4886
▁bras	-4887
werden	-4888
▁anspr	-4889
▁domin	-4890
▁folge	-4891
▁lebte	-4892
▁still	-4893
▁trend	-4894
gewicht	-4895
▁doktor	-4896
▁garten	-4897
▁händen	-4898
▁schock	-4899
▁sparen	-4900
▁willen	-4901
▁basiert	-4902
▁quadrat	-4903
▁spiegel	-4904
▁verbrau	-4905
▁verschl	-4906
▁verzwei	-4907
▁brauchten	-4908
▁erscheinen	-4909
▁erwachsenen	-4910
deu	-4911
lev	-4912
▁nu	-4913
▁dur	-4914
▁rat	-4915
▁roh	-4916
▁unw	-4917
besch	-4918
▁maus	-4919
versor	-4920
▁handy	-4921
▁radio	-4922
▁trägt	-4923
▁ziele	-4924
artigen	-4925
führung	-4926
▁deinen	-4927
▁drüben	-4928
▁starke	-4929
▁inneren	-4930
▁stärker	-4931
▁überprü	-4932
blichkeit	-4933
▁aufbauen	-4934
▁entgegen	-4935
▁inspiriert	-4936
▁überrascht	-4937
▁unterscheiden	-4938
gas	-4939
tan	-4940
ippe	-4941
stel	-4942
geber	-4943
ischt	-4944
liten	-4945
reien	-4946
▁mund	-4947
▁witz	-4948
ändert	-4949
▁musst	-4950
flächen	-4951
▁europä	-4952
▁kaffee	-4953
▁theater	-4954
▁erkannte	-4955
▁nationen	-4956
▁geheimnis	-4957
▁lebewesen	-4958
▁angenommen	-4959
▁entspricht	-4960
▁schlechten	-4961
▁zugänglich	-4962
▁öffentliche	-4963
sc	-4964
bas	-4965
▁bra	-4966
▁got	-4967
▁klu	-4968
schau	-4969
ängst	-4970
▁jähr	-4971
derung	-4972
stelle	-4973
▁franc	-4974
▁insel	-4975
▁wobei	-4976
▁fische	-4977
▁helden	-4978
▁kräfte	-4979
▁kurzen	-4980
▁meiste	-4981
▁privat	-4982
▁überle	-4983
fizieren	-4984
▁erkrank	-4985
▁seitdem	-4986
▁behalten	-4987
▁brachten	-4988
▁schlagen	-4989
▁emotionen	-4990
▁gestorben	-4991
▁zeitalter	-4992
▁arbeiteten	-4993
▁fantastisch	-4994
▁generationen	-4995
▁traditionellen	-4996
ld	-4997
ls	-4998
ym	-4999
lad	-5000
ones	-5001
sver	-5002
tial	-5003
fügen	-5004
kreis	-5005
▁cent	-5006
▁code	-5007
▁eure	-5008
▁wurz	-5009
uliert	-5010
▁kohle	-5011
▁unbek	-5012
▁zweck	-5013
▁beinah	-5014
▁ließen	-5015
▁kapital	-5016
▁starten	-5017
▁anwenden	-5018
▁korallen	-5019
▁aufregend	-5020
▁betroffen	-5021
▁netzwerke	-5022
com	-5023
tro	-5024
war	-5025
▁bon	-5026
▁tom	-5027
▁zog	-5028
inter	-5029
▁dran	-5030
gesell	-5031
muster	-5032
▁hoffen	-5033
▁schien	-5034
▁verblü	-5035
▁wander	-5036
▁bezahlt	-5037
▁langwei	-5038
▁moderne	-5039
▁entworfen	-5040
▁professor	-5041
▁korruption	-5042
▁elektrizität	-5043
▁persönlichen	-5044
pol	-5045
▁sä	-5046
ular	-5047
ößen	-5048
▁kno	-5049
▁off	-5050
holen	-5051
komme	-5052
tiven	-5053
▁baut	-5054
▁gäbe	-5055
▁lass	-5056
▁behin	-5057
▁world	-5058
▁auftau	-5059
▁beweis	-5060
▁dutzen	-5061
▁verlie	-5062
▁beinhal	-5063
▁details	-5064
▁führung	-5065
▁kriegen	-5066
▁körpers	-5067
▁elemente	-5068
▁erfinden	-5069
▁galaxien	-5070
▁interpre	-5071
▁gegensatz	-5072
▁politiker	-5073
▁zerstören	-5074
▁landschaft	-5075
▁reduzieren	-5076
▁grundsätzlich	-5077
2-	-5078
uß	-5079
fir	-5080
utt	-5081
flug	-5082
iten	-5083
nern	-5084
stat	-5085
wegs	-5086
ühlt	-5087
▁ech	-5088
▁len	-5089
▁wom	-5090
dient	-5091
▁auff	-5092
▁frie	-5093
▁halbe	-5094
amerika	-5095
istisch	-5096
▁abstra	-5097
▁aufgew	-5098
▁fehlen	-5099
▁heisst	-5100
▁kooper	-5101
▁minute	-5102
▁müsste	-5103
▁schiff	-5104
▁brauche	-5105
▁install	-5106
▁schaute	-5107
▁überein	-5108
ologischen	-5109
▁existieren	-5110
▁entwickelte	-5111
kä	-5112
ipe	-5113
izi	-5114
akte	-5115
lieb	-5116
▁ref	-5117
passt	-5118
zelle	-5119
▁lied	-5120
fragen	-5121
▁bibli	-5122
▁erleb	-5123
▁fähig	-5124
ordnung	-5125
ächtnis	-5126
▁darwin	-5127
▁grafik	-5128
▁lehren	-5129
▁mexiko	-5130
▁soviel	-5131
fähigkeit	-5132
▁annehmen	-5133
▁gefahren	-5134
▁weltraum	-5135
▁erscheint	-5136
▁entstanden	-5137
▁entsprechen	-5138
▁medizinische	-5139
ns	-5140
yse	-5141
▁gü	-5142
olly	-5143
mäßig	-5144
▁aufs	-5145
▁fuhr	-5146
▁gemü	-5147
aturen	-5148
gehend	-5149
▁fängt	-5150
▁gehör	-5151
▁sucht	-5152
▁verne	-5153
▁wuchs	-5154
▁chemik	-5155
▁grenze	-5156
▁wenigen	-5157
mensionen	-5158
▁abhängig	-5159
▁hinsicht	-5160
▁vertraut	-5161
▁besondere	-5162
unternehmen	-5163
▁medikament	-5164
▁persönliche	-5165
möglichkeiten	-5166
▁99	-5167
▁hi	-5168
berg	-5169
frau	-5170
üste	-5171
bares	-5172
▁ausr	-5173
▁open	-5174
▁unge	-5175
endung	-5176
kosten	-5177
utzung	-5178
▁konfr	-5179
▁rechen	-5180
wachstum	-5181
▁beweise	-5182
▁geistes	-5183
▁schaden	-5184
▁beschrän	-5185
▁erklärung	-5186
▁verbrachte	-5187
▁beschlossen	-5188
yr	-5189
amt	-5190
use	-5191
aria	-5192
▁mas	-5193
▁bele	-5194
▁fiel	-5195
▁kosm	-5196
▁live	-5197
▁micha	-5198
▁quasi	-5199
▁wagen	-5200
▁weile	-5201
agement	-5202
zentrum	-5203
▁setzte	-5204
▁zählen	-5205
bewegung	-5206
▁francis	-5207
▁intelle	-5208
▁zivilisation	-5209
ex	-5210
fun	-5211
hält	-5212
▁erm	-5213
▁feu	-5214
fluss	-5215
▁ermu	-5216
▁thom	-5217
kistan	-5218
▁bemüh	-5219
▁billi	-5220
▁passt	-5221
▁schne	-5222
▁tumor	-5223
alisten	-5224
▁besitz	-5225
▁chemie	-5226
▁erlebt	-5227
issionen	-5228
▁ansicht	-5229
▁einstein	-5230
▁ersetzen	-5231
▁nachbarn	-5232
▁ungleich	-5233
▁vorfahren	-5234
▁bewegungen	-5235
▁entdeckung	-5236
▁architekten	-5237
▁natürlichen	-5238
jem	-5239
let	-5240
til	-5241
äne	-5242
kurr	-5243
▁dre	-5244
tritt	-5245
▁zahn	-5246
äusern	-5247
▁milch	-5248
▁stufe	-5249
▁zieht	-5250
▁anteil	-5251
▁bietet	-5252
▁effekt	-5253
▁wetter	-5254
▁zauber	-5255
zusetzen	-5256
▁berechn	-5257
▁einheit	-5258
▁fischer	-5259
▁respekt	-5260
▁konflikt	-5261
▁lebenser	-5262
▁zeichnen	-5263
▁aufzubauen	-5264
▁darstellen	-5265
▁vermitteln	-5266
▁unterschiedlich	-5267
,5	-5268
ink	-5269
ird	-5270
uhr	-5271
▁ew	-5272
▁zü	-5273
igte	-5274
itel	-5275
▁lan	-5276
acher	-5277
▁anrei	-5278
▁hotel	-5279
▁times	-5280
▁toile	-5281
▁ausmaß	-5282
▁george	-5283
▁quelle	-5284
▁wellen	-5285
amerikan	-5286
▁gehören	-5287
▁lächeln	-5288
▁spannen	-5289
▁verdopp	-5290
▁beweisen	-5291
▁entschul	-5292
▁gespräch	-5293
▁widerspr	-5294
▁zerstört	-5295
▁digitalen	-5296
▁definieren	-5297
▁schlechter	-5298
▁untersucht	-5299
▁wesentlich	-5300
▁schimpansen	-5301
20	-5302
da	-5303
ehm	-5304
eben	-5305
kopf	-5306
öpfe	-5307
▁fig	-5308
lager	-5309
▁dach	-5310
▁fehl	-5311
▁teen	-5312
▁krise	-5313
▁start	-5314
▁stimm	-5315
▁verpf	-5316
▁voran	-5317
▁anhand	-5318
▁kochen	-5319
▁lebten	-5320
▁treten	-5321
▁vieler	-5322
▁auswahl	-5323
▁derzeit	-5324
▁malaria	-5325
▁michael	-5326
▁viertel	-5327
▁prototyp	-5328
▁architekt	-5329
▁irgendjem	-5330
▁kontinent	-5331
▁notwendig	-5332
▁schwarzen	-5333
▁wichtigen	-5334
▁wohlstand	-5335
▁diskussion	-5336
▁schrecklich	-5337
int	-5338
kla	-5339
pha	-5340
ügt	-5341
▁il	-5342
hrop	-5343
▁anb	-5344
▁fru	-5345
▁täu	-5346
anger	-5347
▁atem	-5348
▁hilf	-5349
▁toten	-5350
▁vögel	-5351
umenten	-5352
▁ausser	-5353
▁dauern	-5354
▁dunkle	-5355
▁hinten	-5356
▁schlaf	-5357
▁stabil	-5358
▁beinahe	-5359
▁twitter	-5360
▁vergröß	-5361
▁methoden	-5362
▁pakistan	-5363
▁aufgebaut	-5364
▁jahrzehnt	-5365
▁operation	-5366
▁studieren	-5367
▁beobachtet	-5368
▁verhältnis	-5369
▁feststellen	-5370
tä	-5371
hel	-5372
ise	-5373
uni	-5374
▁tu	-5375
star	-5376
ulpt	-5377
▁air	-5378
▁bur	-5379
asste	-5380
othek	-5381
▁isol	-5382
▁rote	-5383
▁trop	-5384
iziert	-5385
▁hallo	-5386
▁nötig	-5387
▁seele	-5388
▁verab	-5389
▁zitat	-5390
▁übrig	-5391
▁furcht	-5392
▁handel	-5393
▁lustig	-5394
▁pflanz	-5395
▁stammt	-5396
▁steigt	-5397
▁französ	-5398
▁konkurr	-5399
▁welchem	-5400
▁werbung	-5401
▁beeindru	-5402
▁gefallen	-5403
▁abschluss	-5404
▁entdeckte	-5405
▁produktiv	-5406
▁australien	-5407
▁unabhängig	-5408
▁beantworten	-5409
▁selbstverständ	-5410
▁internationalen	-5411
hre	-5412
pft	-5413
res	-5414
anen	-5415
herr	-5416
sser	-5417
▁21.	-5418
▁pat	-5419
fähig	-5420
ierer	-5421
karte	-5422
▁rake	-5423
▁spir	-5424
rechte	-5425
tismus	-5426
▁vorne	-5427
stimmen	-5428
▁epidem	-5429
▁sonder	-5430
▁tiefer	-5431
▁erwähnt	-5432
▁galaxie	-5433
▁gebeten	-5434
▁molekül	-5435
forschung	-5436
istischen	-5437
▁arbeiter	-5438
▁digitale	-5439
▁gespielt	-5440
▁komponen	-5441
▁kulturen	-5442
▁gemeinden	-5443
▁geschickt	-5444
▁wirkliche	-5445
▁überlegen	-5446
▁jedenfalls	-5447
▁veröffentlich	-5448
ozi	-5449
plom	-5450
ugel	-5451
elles	-5452
nungs	-5453
phone	-5454
wagen	-5455
▁dunk	-5456
▁juli	-5457
▁wahn	-5458
riften	-5459
▁fälle	-5460
▁gehei	-5461
▁hyper	-5462
▁ledig	-5463
gruppen	-5464
▁thomas	-5465
▁hindern	-5466
▁sequenz	-5467
▁spielte	-5468
▁wechsel	-5469
▁besuchen	-5470
▁erstellt	-5471
▁geändert	-5472
▁kreieren	-5473
▁positive	-5474
▁schlafen	-5475
▁ernährung	-5476
▁großmutter	-5477
▁unterrichten	-5478
öd	-5479
▁kö	-5480
▁ve	-5481
alog	-5482
erne	-5483
oler	-5484
ward	-5485
ützt	-5486
▁kra	-5487
ücher	-5488
▁nasa	-5489
▁stad	-5490
▁zuzu	-5491
▁lager	-5492
▁letzt	-5493
▁platt	-5494
einhalb	-5495
projekt	-5496
▁willst	-5497
▁wolken	-5498
besonder	-5499
▁berührt	-5500
▁website	-5501
▁wieviel	-5502
▁zeitung	-5503
▁äußerst	-5504
▁geräusch	-5505
▁verteilt	-5506
▁lediglich	-5507
▁verbessert	-5508
▁westlichen	-5509
▁mitarbeiter	-5510
po	-5511
see	-5512
äft	-5513
önt	-5514
▁sl	-5515
burg	-5516
mail	-5517
rale	-5518
▁jan	-5519
▁leg	-5520
▁top	-5521
fahrt	-5522
olfen	-5523
▁kerl	-5524
▁rief	-5525
fangen	-5526
haften	-5527
▁james	-5528
▁schen	-5529
▁stock	-5530
▁gegend	-5531
▁herein	-5532
▁linien	-5533
▁mittag	-5534
▁school	-5535
▁träume	-5536
istische	-5537
▁chirurg	-5538
▁gefällt	-5539
▁italien	-5540
▁lektion	-5541
▁müssten	-5542
besondere	-5543
▁bereiche	-5544
▁bereichen	-5545
▁statistiken	-5546
oc	-5547
zig	-5548
reif	-5549
ufel	-5550
▁gal	-5551
chern	-5552
▁hind	-5553
▁koch	-5554
▁synt	-5555
olitik	-5556
▁blind	-5557
▁enden	-5558
▁kabel	-5559
▁sowas	-5560
▁stuhl	-5561
gründet	-5562
stoffen	-5563
▁gottes	-5564
▁streit	-5565
telliten	-5566
▁absicht	-5567
▁solange	-5568
▁umgeben	-5569
▁verschm	-5570
▁eingesch	-5571
▁versteht	-5572
versorgung	-5573
▁kompliziert	-5574
▁beschäftigen	-5575
▁insbesondere	-5576
▁beispielsweise	-5577
▁schwierigkeiten	-5578
bio	-5579
esie	-5580
mehr	-5581
nahm	-5582
reen	-5583
ston	-5584
vard	-5585
zipl	-5586
▁rum	-5587
▁süß	-5588
eilen	-5589
▁phot	-5590
▁reag	-5591
▁tedx	-5592
kultur	-5593
recher	-5594
▁feind	-5595
▁repar	-5596
▁aspekt	-5597
▁diplom	-5598
▁erwart	-5599
▁inhalt	-5600
▁innere	-5601
▁kapitel	-5602
▁solcher	-5603
▁student	-5604
▁besessen	-5605
▁zusammenf	-5606
▁gemeinsame	-5607
▁geschlecht	-5608
▁widerstand	-5609
▁zusätzlich	-5610
▁irgendjemand	-5611
▁afrikanischen	-5612
yl	-5613
eut	-5614
prä	-5615
▁hu	-5616
eile	-5617
phen	-5618
▁erg	-5619
▁gig	-5620
▁ult	-5621
▁urs	-5622
denkt	-5623
tzeit	-5624
zieht	-5625
▁kate	-5626
wenden	-5627
wohner	-5628
▁bauch	-5629
▁blieb	-5630
▁folgt	-5631
▁erlaub	-5632
▁gelöst	-5633
▁grosse	-5634
▁herren	-5635
▁kümmer	-5636
▁modern	-5637
▁origin	-5638
▁singen	-5639
▁wikipe	-5640
▁worauf	-5641
sprozess	-5642
▁besitzt	-5643
▁hierher	-5644
▁maßstab	-5645
▁entstand	-5646
▁schatten	-5647
▁schätzen	-5648
▁berichten	-5649
▁erfindung	-5650
▁beinhaltet	-5651
▁unterhaltung	-5652
umb	-5653
utu	-5654
eise	-5655
heim	-5656
oben	-5657
äuse	-5658
ancen	-5659
barer	-5660
ehung	-5661
ember	-5662
▁2008	-5663
▁kons	-5664
▁male	-5665
▁spät	-5666
üstung	-5667
▁enorm	-5668
▁ausgel	-5669
▁austau	-5670
▁belieb	-5671
▁gelebt	-5672
▁heißen	-5673
▁junger	-5674
▁nachts	-5675
▁schuld	-5676
▁verknü	-5677
▁harvard	-5678
▁wirkung	-5679
▁aufnahme	-5680
▁existenz	-5681
▁mehrheit	-5682
▁bekannten	-5683
▁gegenwart	-5684
▁potential	-5685
▁allgemeinen	-5686
▁großartigen	-5687
▁menschlicher	-5688
ep	-5689
ey	-5690
own	-5691
▁23	-5692
rige	-5693
▁ann	-5694
▁hem	-5695
▁sum	-5696
sätze	-5697
unken	-5698
▁brow	-5699
▁kehr	-5700
▁grüne	-5701
▁initi	-5702
itieren	-5703
reibung	-5704
ungsver	-5705
▁blauen	-5706
▁eindeu	-5707
▁führer	-5708
schätzen	-5709
▁konfron	-5710
▁signale	-5711
▁verlust	-5712
▁anstelle	-5713
▁darunter	-5714
▁diagramm	-5715
▁folgende	-5716
▁transpar	-5717
▁arbeitspl	-5718
▁gesichter	-5719
▁erwachsene	-5720
▁moralische	-5721
▁chemikalien	-5722
▁präsentation	-5723
▁unglaublichen	-5724
kri	-5725
urf	-5726
▁bä	-5727
hört	-5728
ines	-5729
mord	-5730
▁anp	-5731
ckten	-5732
mater	-5733
preis	-5734
weile	-5735
▁alex	-5736
▁entz	-5737
▁heiß	-5738
▁lich	-5739
▁länd	-5740
▁seht	-5741
karten	-5742
schrän	-5743
werken	-5744
▁damen	-5745
▁gemäl	-5746
▁human	-5747
▁weiße	-5748
schland	-5749
systeme	-5750
▁enorme	-5751
▁langer	-5752
▁market	-5753
▁pflege	-5754
▁winter	-5755
qualität	-5756
▁einiges	-5757
▁momente	-5758
▁mächtig	-5759
▁verhand	-5760
▁verring	-5761
verbrauch	-5762
▁bedenken	-5763
▁offenbar	-5764
▁erweitern	-5765
▁transform	-5766
▁vermeiden	-5767
▁wikipedia	-5768
▁überrasch	-5769
▁instrument	-5770
▁interessen	-5771
▁profession	-5772
▁verwandelt	-5773
▁bedürfnisse	-5774
▁gegenseitig	-5775
▁vorhersagen	-5776
▁faszinierend	-5777
zz	-5778
ams	-5779
rel	-5780
▁ip	-5781
kung	-5782
üche	-5783
▁11.	-5784
▁19.	-5785
▁600	-5786
▁ath	-5787
▁can	-5788
▁com	-5789
▁etc	-5790
kette	-5791
äufer	-5792
▁brut	-5793
▁eier	-5794
▁elef	-5795
▁ener	-5796
▁haar	-5797
bilden	-5798
▁aspek	-5799
▁drauf	-5800
▁gewöh	-5801
▁hunde	-5802
▁nukle	-5803
▁schie	-5804
▁stahl	-5805
▁steve	-5806
▁gesamt	-5807
▁grünen	-5808
▁hunger	-5809
▁konzep	-5810
▁mangel	-5811
▁vorder	-5812
▁freundin	-5813
▁gesichts	-5814
▁weiterer	-5815
▁gebraucht	-5816
▁veränderte	-5817
▁übernehmen	-5818
▁akzeptieren	-5819
▁schwieriger	-5820
▁unterstützt	-5821
▁vorzustellen	-5822
▁internationale	-5823
lu	-5824
fig	-5825
▁ri	-5826
loss	-5827
nach	-5828
▁194	-5829
▁nad	-5830
▁sar	-5831
erung	-5832
▁blät	-5833
▁eink	-5834
▁glam	-5835
▁kamp	-5836
▁repu	-5837
▁span	-5838
▁tour	-5839
fernen	-5840
▁folie	-5841
▁jewei	-5842
▁kapit	-5843
▁pfund	-5844
▁rufen	-5845
▁teles	-5846
fordert	-5847
▁anfing	-5848
▁bauten	-5849
▁blumen	-5850
▁diesel	-5851
▁tanzen	-5852
▁teufel	-5853
▁tonnen	-5854
▁zusätz	-5855
bevölker	-5856
▁afrikas	-5857
▁buchsta	-5858
▁erneuer	-5859
▁konserv	-5860
▁lokalen	-5861
▁schreib	-5862
▁wissens	-5863
▁zuhören	-5864
losigkeit	-5865
▁besseres	-5866
▁betrachte	-5867
▁entfernen	-5868
▁gegründet	-5869
▁stammzellen	-5870
do	-5871
hu	-5872
eis	-5873
ikt	-5874
hung	-5875
▁nar	-5876
▁pre	-5877
lesen	-5878
▁böse	-5879
▁legt	-5880
▁qual	-5881
▁brief	-5882
▁manip	-5883
▁meist	-5884
▁ohren	-5885
▁vorzu	-5886
▁wofür	-5887
▁wovon	-5888
▁akadem	-5889
▁bedarf	-5890
▁fakten	-5891
▁golden	-5892
▁leiten	-5893
▁löcher	-5894
▁realen	-5895
▁signal	-5896
▁glamour	-5897
▁grundle	-5898
▁niedrig	-5899
▁veranst	-5900
▁bildungs	-5901
▁spektrum	-5902
▁ähnliche	-5903
▁beschloss	-5904
bevölkerung	-5905
▁beschreibt	-5906
▁intellektu	-5907
▁verblüffen	-5908
▁verbrechen	-5909
▁weltweiten	-5910
▁situationen	-5911
▁fortschritte	-5912
▁menschliches	-5913
▁untersuchung	-5914
▁überraschend	-5915
▁medizinischen	-5916
bür	-5917
ida	-5918
ruh	-5919
▁wh	-5920
asie	-5921
förm	-5922
▁don	-5923
▁eli	-5924
▁lar	-5925
▁pan	-5926
▁tur	-5927
halts	-5928
linie	-5929
orgen	-5930
▁farb	-5931
▁hilfs	-5932
▁kreuz	-5933
ließend	-5934
sprache	-5935
▁ausgew	-5936
▁billig	-5937
▁skulpt	-5938
material	-5939
▁100.000	-5940
▁enthält	-5941
▁freiwil	-5942
▁nigeria	-5943
▁ausgeben	-5944
▁echtzeit	-5945
▁regionen	-5946
▁ingenieur	-5947
▁langfrist	-5948
▁speziellen	-5949
▁bevölkerungs	-5950
ati	-5951
cyc	-5952
eng	-5953
vir	-5954
▁geg	-5955
▁pra	-5956
▁pun	-5957
biert	-5958
rufen	-5959
stero	-5960
viert	-5961
▁anim	-5962
▁glüh	-5963
▁nähr	-5964
▁show	-5965
▁stan	-5966
design	-5967
▁immun	-5968
▁süden	-5969
▁wüste	-5970
▁aufbau	-5971
▁größen	-5972
▁kirche	-5973
▁ozeane	-5974
▁überqu	-5975
▁anerken	-5976
▁aussage	-5977
▁grossen	-5978
▁ereignis	-5979
▁kongress	-5980
▁leichter	-5981
▁momentan	-5982
▁perfekte	-5983
▁unmittel	-5984
▁wechseln	-5985
▁anwendung	-5986
▁brasilien	-5987
▁deutschland	-5988
▁geschlossen	-5989
▁konzentriert	-5990
▁ursprünglich	-5991
ash	-5992
its	-5993
tal	-5994
▁gö	-5995
▁mr	-5996
frei	-5997
klär	-5998
ohnt	-5999
äden	-6000
▁okt	-6001
▁sam	-6002
plant	-6003
ützen	-6004
▁ausb	-6005
▁kurs	-6006
▁stir	-6007
▁weis	-6008
ührung	-6009
▁baute	-6010
▁blatt	-6011
owissen	-6012
▁durchs	-6013
▁geschw	-6014
▁kanada	-6015
▁kannte	-6016
▁dauerte	-6017
▁fahrrad	-6018
▁gekauft	-6019
▁trinken	-6020
▁trocken	-6021
▁metapher	-6022
▁einfaches	-6023
▁religionen	-6024
▁sicherheits	-6025
▁wirtschaftliche	-6026
ied	-6027
ney	-6028
täu	-6029
▁2.	-6030
alte	-6031
bein	-6032
leib	-6033
▁zeh	-6034
▁seid	-6035
bstoff	-6036
ischem	-6037
kungen	-6038
lernen	-6039
nommen	-6040
reisen	-6041
▁fokus	-6042
▁trick	-6043
▁achten	-6044
▁freien	-6045
▁grippe	-6046
▁mengen	-6047
▁stücke	-6048
▁unfall	-6049
▁mittels	-6050
▁mikroben	-6051
▁transpor	-6052
▁webseite	-6053
▁literatur	-6054
▁südafrika	-6055
▁teilweise	-6056
▁überwinden	-6057
col	-6058
nütz	-6059
▁brü	-6060
▁wüs	-6061
boden	-6062
drück	-6063
iveau	-6064
▁hing	-6065
▁lieb	-6066
gerung	-6067
▁asien	-6068
▁atmen	-6069
▁lügen	-6070
▁phant	-6071
▁tests	-6072
▁versp	-6073
▁worum	-6074
▁zwang	-6075
sterben	-6076
▁ausger	-6077
▁besagt	-6078
▁ergibt	-6079
▁fokuss	-6080
▁hinauf	-6081
▁tiefen	-6082
ollywood	-6083
▁drücken	-6084
▁musiker	-6085
▁risiken	-6086
▁taschen	-6087
▁verstär	-6088
▁überwäl	-6089
probieren	-6090
▁anschein	-6091
▁erfinder	-6092
▁lebenden	-6093
▁schritte	-6094
▁teenager	-6095
▁verstehe	-6096
▁aufnehmen	-6097
▁leistungs	-6098
▁marketing	-6099
▁tausenden	-6100
▁videospie	-6101
▁beibringen	-6102
▁konsequenzen	-6103
ire	-6104
leh	-6105
mma	-6106
reu	-6107
▁rö	-6108
beln	-6109
ging	-6110
tzer	-6111
▁att	-6112
krise	-6113
▁bezü	-6114
▁mode	-6115
dollar	-6116
drückt	-6117
ichern	-6118
lösung	-6119
▁schme	-6120
▁youtu	-6121
wechsel	-6122
▁fabrik	-6123
▁gewiss	-6124
▁lokale	-6125
▁robert	-6126
▁spüren	-6127
▁ansieht	-6128
▁aufgere	-6129
▁bekomme	-6130
▁geschma	-6131
▁diagnost	-6132
▁erlebnis	-6133
▁dieselben	-6134
▁strategie	-6135
▁zuschauer	-6136
▁prinzipien	-6137
▁durchführen	-6138
▁gemeinsamen	-6139
▁inspirieren	-6140
▁kombination	-6141
▁gerechtigkeit	-6142
bet	-6143
uls	-6144
▁py	-6145
iein	-6146
rett	-6147
spar	-6148
▁haw	-6149
▁stä	-6150
▁sur	-6151
hlung	-6152
staat	-6153
▁froh	-6154
▁nase	-6155
punkte	-6156
recken	-6157
▁armee	-6158
▁draht	-6159
▁erdbe	-6160
▁fährt	-6161
▁kenia	-6162
▁küste	-6163
▁stehe	-6164
▁teilt	-6165
▁woran	-6166
▁astero	-6167
▁lungen	-6168
▁meinte	-6169
▁rollen	-6170
▁senden	-6171
▁einzeln	-6172
▁führten	-6173
▁komment	-6174
▁sternen	-6175
▁youtube	-6176
▁geholfen	-6177
▁hinunter	-6178
▁springen	-6179
produktion	-6180
▁transport	-6181
▁satelliten	-6182
▁wenigstens	-6183
▁aktivitäten	-6184
▁biologische	-6185
▁verschwunden	-6186
▁interessantes	-6187
hö	-6188
ago	-6189
pern	-6190
ters	-6191
▁dör	-6192
▁hir	-6193
▁leh	-6194
▁mic	-6195
▁ost	-6196
euert	-6197
icken	-6198
linge	-6199
riffe	-6200
▁real	-6201
▁1.000	-6202
▁gelie	-6203
▁weihn	-6204
itation	-6205
prozess	-6206
▁aktion	-6207
▁alltag	-6208
▁schalt	-6209
▁schrei	-6210
▁soweit	-6211
▁stärke	-6212
▁gebiete	-6213
▁glaubte	-6214
▁liefern	-6215
▁quanten	-6216
▁zweimal	-6217
▁lebendig	-6218
▁sichtbar	-6219
▁behaupten	-6220
▁betreiben	-6221
▁ernsthaft	-6222
▁francisco	-6223
▁erinnerung	-6224
▁fasziniert	-6225
▁geburtstag	-6226
▁inzwischen	-6227
▁wahrnehmen	-6228
▁wundervoll	-6229
▁chinesische	-6230
▁aufgewachsen	-6231
▁innovationen	-6232
▁gemeinschaften	-6233
akt	-6234
bom	-6235
ics	-6236
ime	-6237
ühe	-6238
▁eu	-6239
▁sw	-6240
eilt	-6241
hyth	-6242
iche	-6243
mpft	-6244
oxid	-6245
zenz	-6246
▁lad	-6247
▁pla	-6248
behör	-6249
dreht	-6250
gewal	-6251
▁bang	-6252
▁höre	-6253
▁mini	-6254
▁quer	-6255
▁sing	-6256
isiert	-6257
stechn	-6258
winkel	-6259
▁anstr	-6260
▁direk	-6261
▁erwar	-6262
▁horiz	-6263
▁liber	-6264
▁räume	-6265
▁sympt	-6266
▁umher	-6267
▁anführ	-6268
▁ausges	-6269
▁brücke	-6270
▁fingen	-6271
▁status	-6272
▁annahme	-6273
▁erhöhen	-6274
▁erkannt	-6275
▁tatsäch	-6276
icherheit	-6277
▁resultat	-6278
▁versagen	-6279
▁vorteile	-6280
▁wertvoll	-6281
leistungen	-6282
▁bezüglich	-6283
▁erforscht	-6284
▁kostenlos	-6285
▁mikroskop	-6286
▁irgendeine	-6287
▁restaurant	-6288
▁inspiration	-6289
▁neurowissen	-6290
▁verbreitung	-6291
▁dreidimension	-6292
irk	-6293
leb	-6294
ots	-6295
pri	-6296
▁ug	-6297
comp	-6298
▁err	-6299
▁ruf	-6300
▁ums	-6301
ender	-6302
kontr	-6303
metho	-6304
▁bahn	-6305
▁fürs	-6306
▁grie	-6307
▁hell	-6308
▁nett	-6309
bücher	-6310
fallen	-6311
reiche	-6312
öntgen	-6313
▁erwär	-6314
▁günst	-6315
▁noten	-6316
▁relev	-6317
▁sorge	-6318
gedacht	-6319
▁island	-6320
▁rennen	-6321
▁umfeld	-6322
▁manchen	-6323
▁quellen	-6324
▁standen	-6325
▁streben	-6326
▁unteren	-6327
arbeitung	-6328
▁dahinter	-6329
▁nebenbei	-6330
▁proteine	-6331
▁wahnsinn	-6332
▁aufgeregt	-6333
▁grundlage	-6334
▁schmerzen	-6335
▁verglichen	-6336
▁wettbewerb	-6337
gesellschaft	-6338
▁informations	-6339
kap	-6340
ymp	-6341
eten	-6342
▁abh	-6343
küste	-6344
osion	-6345
stuhl	-6346
üssen	-6347
▁bund	-6348
▁genü	-6349
▁kart	-6350
▁mart	-6351
dienst	-6352
freund	-6353
▁bestä	-6354
▁korre	-6355
▁phase	-6356
▁warte	-6357
problem	-6358
▁krimin	-6359
▁pollen	-6360
▁winzig	-6361
pflanzen	-6362
▁chancen	-6363
▁spenden	-6364
▁erweiter	-6365
▁krankenh	-6366
▁speziell	-6367
▁vielmehr	-6368
▁komplexen	-6369
▁bezeichnen	-6370
▁bibliothek	-6371
▁unterricht	-6372
▁zerstörung	-6373
▁automatisch	-6374
▁beschrieben	-6375
▁lebenserwart	-6376
▁mittlerweile	-6377
▁organisieren	-6378
▁klassenzimmer	-6379
va	-6380
hof	-6381
kat	-6382
urz	-6383
▁ba	-6384
▁ts	-6385
bern	-6386
▁cor	-6387
▁hüh	-6388
▁jer	-6389
▁tin	-6390
menge	-6391
ordin	-6392
räume	-6393
telef	-6394
vater	-6395
weite	-6396
ünden	-6397
▁biom	-6398
dieren	-6399
quelle	-6400
▁stern	-6401
lischen	-6402
tierung	-6403
▁gemüse	-6404
▁märkte	-6405
▁option	-6406
▁ration	-6407
▁treiben	-6408
▁weshalb	-6409
verhalten	-6410
▁physikal	-6411
▁physiker	-6412
▁aufnahmen	-6413
▁basierend	-6414
▁folgenden	-6415
▁geräusche	-6416
▁irgendwel	-6417
▁buchstaben	-6418
▁dargestellt	-6419
▁dimensionen	-6420
▁jahrzehnten	-6421
▁nachgedacht	-6422
▁grundlegenden	-6423
geschwindigkeit	-6424
ica	-6425
pos	-6426
▁zy	-6427
dach	-6428
gelt	-6429
inst	-6430
schi	-6431
zial	-6432
öser	-6433
andid	-6434
▁dumm	-6435
▁ethn	-6436
▁flor	-6437
tausen	-6438
zeigen	-6439
▁chaos	-6440
▁micro	-6441
chester	-6442
▁falten	-6443
▁flügel	-6444
▁presse	-6445
▁stress	-6446
▁ältere	-6447
stration	-6448
▁beenden	-6449
▁besorgt	-6450
▁gedicht	-6451
▁röntgen	-6452
schriften	-6453
▁anschaut	-6454
▁bekannte	-6455
▁betrieben	-6456
▁darstellt	-6457
▁derselben	-6458
▁eindeutig	-6459
▁langsamer	-6460
▁schicksal	-6461
▁umzugehen	-6462
▁weltkrieg	-6463
▁bezeichnet	-6464
▁sonnenlicht	-6465
▁fantastische	-6466
abl	-6467
ele	-6468
▁22	-6469
here	-6470
hrer	-6471
ison	-6472
schm	-6473
älte	-6474
▁mad	-6475
▁wid	-6476
▁2005	-6477
▁chip	-6478
▁hieß	-6479
▁kühl	-6480
fahrer	-6481
licken	-6482
würdig	-6483
▁alpha	-6484
▁gefol	-6485
▁karik	-6486
▁magie	-6487
▁teams	-6488
▁womit	-6489
örungen	-6490
▁alters	-6491
▁angeht	-6492
▁beglei	-6493
▁bezahl	-6494
▁detail	-6495
▁faktor	-6496
▁gesamm	-6497
▁kaufte	-6498
▁metall	-6499
▁street	-6500
▁unwahr	-6501
▁vieles	-6502
gegangen	-6503
leistung	-6504
▁gewählt	-6505
▁meister	-6506
▁offenen	-6507
▁schönes	-6508
▁verlang	-6509
▁zweifel	-6510
▁älteren	-6511
▁argument	-6512
▁geschenk	-6513
▁schreibt	-6514
oberfläche	-6515
▁beteiligt	-6516
▁scheinbar	-6517
▁eingeladen	-6518
▁regierungs	-6519
▁zusammenzu	-6520
▁einstellung	-6521
▁voneinander	-6522
▁wunderbaren	-6523
▁vorstellungen	-6524
▁weiterentwick	-6525
30	-6526
andt	-6527
azin	-6528
back	-6529
eigt	-6530
viele	-6531
▁1960	-6532
▁2010	-6533
▁budd	-6534
▁erhe	-6535
▁mama	-6536
▁meth	-6537
▁stür	-6538
▁tele	-6539
▁trug	-6540
bilder	-6541
tigten	-6542
▁eisen	-6543
▁jener	-6544
▁level	-6545
▁spann	-6546
mitglie	-6547
▁bedien	-6548
▁rezept	-6549
▁schuhe	-6550
▁strand	-6551
▁wirken	-6552
gelassen	-6553
▁gemälde	-6554
▁beachten	-6555
▁ernähren	-6556
▁seltsame	-6557
▁verschie	-6558
▁wünschte	-6559
▁billionen	-6560
▁enthalten	-6561
▁schwanger	-6562
▁ausgesetzt	-6563
▁eingeführt	-6564
▁gedächtnis	-6565
▁schwierige	-6566
▁elektrische	-6567
▁kontrolliert	-6568
▁mathematiker	-6569
ory	-6570
▁dh	-6571
komp	-6572
züge	-6573
▁höl	-6574
▁nir	-6575
▁vag	-6576
▁van	-6577
kehrt	-6578
weich	-6579
ünder	-6580
▁chic	-6581
▁infe	-6582
▁kore	-6583
▁moch	-6584
▁ritu	-6585
▁ruhe	-6586
▁skla	-6587
eilung	-6588
gesamt	-6589
riffen	-6590
▁angem	-6591
▁fehlt	-6592
▁front	-6593
▁knapp	-6594
▁nahen	-6595
▁obama	-6596
▁treib	-6597
fliegen	-6598
mischen	-6599
▁berück	-6600
▁deiner	-6601
▁landen	-6602
▁zufall	-6603
▁diszipl	-6604
▁doppelt	-6605
▁zeigten	-6606
▁batterie	-6607
▁begegnen	-6608
▁vergewal	-6609
▁weisheit	-6610
▁mitnehmen	-6611
▁genetische	-6612
▁ingenieure	-6613
▁university	-6614
▁herstellung	-6615
▁psychologie	-6616
▁verursachen	-6617
▁entdeckungen	-6618
▁überraschung	-6619
▁lebenserwartung	-6620
if	-6621
kul	-6622
xis	-6623
züg	-6624
inkt	-6625
▁250	-6626
▁flu	-6627
athie	-6628
nügen	-6629
onien	-6630
unruh	-6631
▁jüng	-6632
▁proz	-6633
▁wach	-6634
zahlen	-6635
▁haiti	-6636
▁paris	-6637
▁säuge	-6638
ausende	-6639
▁gelehr	-6640
▁kriegs	-6641
▁beunruh	-6642
▁flächen	-6643
▁hielten	-6644
▁vermute	-6645
▁versamm	-6646
▁chinesen	-6647
▁leuchten	-6648
▁visuelle	-6649
▁definiert	-6650
▁einschrän	-6651
▁niemanden	-6652
▁scheitern	-6653
▁verfahren	-6654
gehensweise	-6655
▁entfernung	-6656
▁alternative	-6657
▁ausstellung	-6658
▁darstellung	-6659
▁hinterlassen	-6660
▁nachhaltigkeit	-6661
za	-6662
ony	-6663
bran	-6664
erte	-6665
gert	-6666
part	-6667
▁abl	-6668
▁cir	-6669
▁cle	-6670
▁tja	-6671
eihen	-6672
nchen	-6673
onent	-6674
älter	-6675
▁half	-6676
▁knie	-6677
▁stim	-6678
▁ther	-6679
messer	-6680
stücke	-6681
▁angen	-6682
▁cyber	-6683
▁küche	-6684
▁misch	-6685
▁misst	-6686
▁subst	-6687
spiegel	-6688
▁dichte	-6689
▁gelang	-6690
▁höchst	-6691
▁hörten	-6692
▁völker	-6693
▁wohlbe	-6694
bekommen	-6695
designer	-6696
▁angriff	-6697
▁aspekte	-6698
▁nannten	-6699
▁nutzung	-6700
▁spiritu	-6701
▁starken	-6702
▁stoppen	-6703
▁bemerkte	-6704
▁gegenwär	-6705
▁genügend	-6706
▁horizont	-6707
▁schauten	-6708
▁schweden	-6709
▁verliert	-6710
▁verwende	-6711
▁indischen	-6712
▁vergnügen	-6713
▁ähnliches	-6714
▁arabischen	-6715
▁jahrzehnte	-6716
▁verwendung	-6717
▁glücklicher	-6718
▁verletzlich	-6719
▁außergewöhnlich	-6720
hai	-6721
kür	-6722
zum	-6723
cket	-6724
denz	-6725
wehr	-6726
▁cen	-6727
▁lab	-6728
▁sms	-6729
asien	-6730
eidet	-6731
gangs	-6732
vileg	-6733
▁flex	-6734
▁pazi	-6735
▁simp	-6736
▁sorg	-6737
bringt	-6738
gebiet	-6739
▁impro	-6740
▁kurve	-6741
▁polio	-6742
▁scien	-6743
▁titan	-6744
▁unvor	-6745
▁zähne	-6746
bewusst	-6747
▁dienen	-6748
▁eingeb	-6749
▁erhöht	-6750
▁fläche	-6751
▁geruch	-6752
▁heilen	-6753
▁merken	-6754
▁schild	-6755
▁trafen	-6756
▁unterr	-6757
▁general	-6758
▁letzter	-6759
▁schicht	-6760
▁skelett	-6761
▁traurig	-6762
schneiden	-6763
▁erdbeben	-6764
▁erfüllen	-6765
▁kreative	-6766
▁pinguine	-6767
▁schlacht	-6768
▁bedrohung	-6769
▁kreativen	-6770
▁letztlich	-6771
▁reduziert	-6772
▁spezielle	-6773
▁umständen	-6774
▁wachstums	-6775
▁ländlichen	-6776
▁grundlegend	-6777
▁instrumente	-6778
▁biologischen	-6779
▁konfrontiert	-6780
▁wunderschöne	-6781
▁interessanten	-6782
kw	-6783
xi	-6784
män	-6785
uth	-6786
way	-6787
▁ky	-6788
derm	-6789
fung	-6790
ossi	-6791
▁ark	-6792
▁gps	-6793
▁mak	-6794
▁ras	-6795
▁wem	-6796
ahnen	-6797
führt	-6798
iness	-6799
utern	-6800
▁jack	-6801
achter	-6802
ikaner	-6803
mechan	-6804
▁bibel	-6805
▁erhol	-6806
▁proje	-6807
▁verur	-6808
▁wärme	-6809
▁zehnt	-6810
isieren	-6811
uchtung	-6812
▁abfall	-6813
▁feiern	-6814
▁gebrau	-6815
▁hängen	-6816
▁iphone	-6817
▁kindes	-6818
▁lächer	-6819
▁partei	-6820
▁schnee	-6821
▁staats	-6822
▁studio	-6823
▁theore	-6824
▁weisen	-6825
aufnahme	-6826
▁dringen	-6827
▁starben	-6828
▁ägypten	-6829
▁aufstieg	-6830
▁schulter	-6831
▁angelegen	-6832
▁bekämpfen	-6833
▁geschäfte	-6834
▁nationale	-6835
▁potenzial	-6836
▁wichtiges	-6837
▁zunehmend	-6838
▁depression	-6839
▁hinzufügen	-6840
▁kulturelle	-6841
▁vorbereitet	-6842
▁wasserstoff	-6843
▁sonnensystem	-6844
▁funktionierte	-6845
ba	-6846
ota	-6847
ppt	-6848
▁mü	-6849
fand	-6850
stür	-6851
▁abt	-6852
▁beu	-6853
▁erb	-6854
▁ohr	-6855
▁wäl	-6856
▁ära	-6857
gebäu	-6858
gespr	-6859
liste	-6860
reift	-6861
▁feed	-6862
▁mosk	-6863
▁myth	-6864
▁präz	-6865
▁sech	-6866
mittag	-6867
▁bewer	-6868
▁desig	-6869
▁erhöh	-6870
▁heben	-6871
▁leber	-6872
▁samen	-6873
mittelt	-6874
▁enttäu	-6875
▁fliege	-6876
▁global	-6877
▁höhere	-6878
▁machst	-6879
▁planen	-6880
▁späten	-6881
▁welten	-6882
gekommen	-6883
▁blätter	-6884
▁chicago	-6885
▁gezogen	-6886
▁nervenz	-6887
▁wünsche	-6888
maschinen	-6889
▁demonstr	-6890
▁exponent	-6891
▁falschen	-6892
▁gebäuden	-6893
▁gelassen	-6894
▁getrennt	-6895
▁hinblick	-6896
▁russland	-6897
▁studiert	-6898
▁verdient	-6899
▁vorwärts	-6900
▁afrikaner	-6901
▁anzusehen	-6902
▁bedeutete	-6903
▁gebrochen	-6904
▁hoffnungs	-6905
▁besonderen	-6906
▁ereignisse	-6907
▁präsentiert	-6908
sterblichkeit	-6909
▁elektrischen	-6910
▁einrichtungen	-6911
pu	-6912
har	-6913
ärm	-6914
▁ät	-6915
komm	-6916
öten	-6917
▁mac	-6918
▁mau	-6919
▁ärm	-6920
illen	-6921
▁1990	-6922
▁akte	-6923
▁base	-6924
▁dist	-6925
▁grav	-6926
▁haie	-6927
▁kalt	-6928
▁klav	-6929
klasse	-6930
othese	-6931
pflanz	-6932
▁alltä	-6933
▁blaue	-6934
ografie	-6935
▁atomen	-6936
▁vorhin	-6937
computer	-6938
ieinhalb	-6939
isierung	-6940
▁besucht	-6941
▁debatte	-6942
▁lebende	-6943
▁musikal	-6944
▁einblick	-6945
▁genießen	-6946
▁privileg	-6947
▁problems	-6948
▁training	-6949
▁verfolgt	-6950
▁winzigen	-6951
ussendlich	-6952
▁insgesamt	-6953
▁programme	-6954
▁versteckt	-6955
zeichnungen	-6956
▁langweilig	-6957
▁richtungen	-6958
▁beigebracht	-6959
▁einzigartig	-6960
▁technischen	-6961
▁erinnerungen	-6962
▁nachbarschaft	-6963
▁schlussendlich	-6964
urop	-6965
vier	-6966
önen	-6967
▁imm	-6968
▁kün	-6969
ässer	-6970
▁camp	-6971
▁ghan	-6972
▁line	-6973
▁raub	-6974
handel	-6975
lichem	-6976
linien	-6977
ängste	-6978
▁befeh	-6979
▁berge	-6980
▁fried	-6981
▁griff	-6982
▁lasse	-6983
▁malen	-6984
▁offiz	-6985
▁olymp	-6986
▁recyc	-6987
▁scham	-6988
▁staub	-6989
griffen	-6990
lektion	-6991
station	-6992
▁boston	-6993
▁kriege	-6994
▁marken	-6995
▁neigen	-6996
▁schach	-6997
jähriger	-6998
stimmung	-6999
▁erhielt	-7000
▁gericht	-7001
▁gesetzt	-7002
▁krieges	-7003
▁schlägt	-7004
▁übersch	-7005
▁anhalten	-7006
▁berühren	-7007
▁gemessen	-7008
▁höchsten	-7009
▁umfassen	-7010
▁begreifen	-7011
▁beobachte	-7012
▁resultate	-7013
▁unterwegs	-7014
▁vorschlag	-7015
▁dazwischen	-7016
▁emotionale	-7017
▁anscheinend	-7018
▁einfachheit	-7019
▁moralischen	-7020
▁wundervolle	-7021
▁entscheidend	-7022
▁investitionen	-7023
arr	-7024
car	-7025
enk	-7026
ias	-7027
lip	-7028
ops	-7029
spe	-7030
abil	-7031
aner	-7032
film	-7033
ight	-7034
obel	-7035
uche	-7036
wort	-7037
▁jur	-7038
▁kuh	-7039
▁por	-7040
▁pum	-7041
▁rek	-7042
arden	-7043
otten	-7044
▁adam	-7045
▁bush	-7046
▁rock	-7047
▁strö	-7048
▁trei	-7049
ativer	-7050
drücke	-7051
graben	-7052
▁peter	-7053
▁reser	-7054
▁rhyth	-7055
▁serie	-7056
▁ungeh	-7057
sproble	-7058
▁aussah	-7059
▁benzin	-7060
▁bundes	-7061
▁kommer	-7062
▁organe	-7063
schaffen	-7064
zuführen	-7065
▁abgesch	-7066
▁angeles	-7067
▁anstieg	-7068
▁schwere	-7069
▁aktuelle	-7070
▁besuchte	-7071
▁epidemie	-7072
▁erfassen	-7073
▁kampagne	-7074
▁kleidung	-7075
▁belohnung	-7076
▁berechnen	-7077
▁elefanten	-7078
▁vorsichtig	-7079
▁algorithmen	-7080
▁eigenschaft	-7081
▁genetischen	-7082
▁philosophie	-7083
▁präsidenten	-7084
▁veröffentlichen	-7085
ats	-7086
tin	-7087
tit	-7088
van	-7089
wen	-7090
ümm	-7091
arth	-7092
omie	-7093
vide	-7094
▁akt	-7095
▁dru	-7096
▁mün	-7097
gener	-7098
malen	-7099
teste	-7100
tteln	-7101
▁2009	-7102
▁gelb	-7103
▁nimm	-7104
▁rett	-7105
▁vorn	-7106
▁wozu	-7107
attung	-7108
kräfte	-7109
▁achse	-7110
▁beton	-7111
▁diabe	-7112
▁geome	-7113
▁kateg	-7114
▁kongo	-7115
▁marke	-7116
▁selbe	-7117
ichtete	-7118
standen	-7119
▁abente	-7120
▁beherr	-7121
▁einzus	-7122
▁hassen	-7123
▁kaputt	-7124
▁muskel	-7125
▁offene	-7126
▁reihen	-7127
▁suchte	-7128
▁öffnet	-7129
▁angesch	-7130
▁betrieb	-7131
▁dunklen	-7132
▁dutzend	-7133
▁ergeben	-7134
▁kameras	-7135
▁koordin	-7136
▁spinnen	-7137
▁wurzeln	-7138
alisierte	-7139
▁anpassen	-7140
▁gerettet	-7141
▁jenseits	-7142
▁mehreren	-7143
▁ursprung	-7144
▁zeitraum	-7145
▁abgesehen	-7146
▁kollektiv	-7147
▁unterhalt	-7148
▁versorgen	-7149
▁brustkrebs	-7150
▁dunkelheit	-7151
▁frankreich	-7152
▁gemeinnütz	-7153
▁motivation	-7154
▁zusammenge	-7155
▁übersetzen	-7156
▁irgendeinem	-7157
▁vergangenen	-7158
▁programmieren	-7159
uar	-7160
alls	-7161
emin	-7162
okol	-7163
sthe	-7164
trau	-7165
zung	-7166
ülle	-7167
▁gän	-7168
▁sir	-7169
▁sus	-7170
milli	-7171
schwe	-7172
▁amaz	-7173
▁fair	-7174
▁leer	-7175
▁radi	-7176
▁stap	-7177
▁umso	-7178
endete	-7179
findet	-7180
▁anruf	-7181
▁brill	-7182
▁fossi	-7183
▁frühe	-7184
▁kugel	-7185
▁kämpf	-7186
▁prior	-7187
▁wüten	-7188
schicht	-7189
schläge	-7190
zwungen	-7191
▁beides	-7192
▁erneut	-7193
▁futter	-7194
▁liebte	-7195
▁medium	-7196
▁proben	-7197
▁schaue	-7198
▁tasche	-7199
▁umwand	-7200
▁berühmt	-7201
▁dokumen	-7202
▁gewöhnt	-7203
▁protein	-7204
▁drittens	-7205
▁erwähnen	-7206
▁gegenden	-7207
▁improvis	-7208
▁stanford	-7209
▁ökonomen	-7210
▁chemische	-7211
▁computern	-7212
▁berücksich	-7213
▁investiert	-7214
▁mitglieder	-7215
▁nachhaltig	-7216
▁population	-7217
▁schlechtes	-7218
▁neuigkeiten	-7219
▁beeindrucken	-7220
▁chinesischen	-7221
▁schriftsteller	-7222
aff	-7223
cin	-7224
dat	-7225
eme	-7226
gin	-7227
ice	-7228
rew	-7229
üge	-7230
▁36	-7231
▁hä	-7232
arma	-7233
lant	-7234
▁195	-7235
▁box	-7236
▁fro	-7237
▁hüb	-7238
▁jon	-7239
atein	-7240
auten	-7241
brech	-7242
eifen	-7243
stamm	-7244
▁1000	-7245
▁2004	-7246
▁frag	-7247
▁türk	-7248
schten	-7249
▁besei	-7250
▁brand	-7251
▁bösen	-7252
▁gebur	-7253
▁ghana	-7254
▁hitze	-7255
▁humor	-7256
▁saßen	-7257
▁talen	-7258
fischen	-7259
gebiete	-7260
zustand	-7261
▁analog	-7262
▁bekann	-7263
▁deinem	-7264
▁inklus	-7265
▁latein	-7266
▁nervös	-7267
▁schlug	-7268
▁wahlen	-7269
funktion	-7270
▁fließen	-7271
▁gesunde	-7272
▁klavier	-7273
▁zerstör	-7274
▁ausgaben	-7275
▁ausnahme	-7276
▁bewirken	-7277
▁faktoren	-7278
▁glaubten	-7279
▁gründete	-7280
▁systemen	-7281
▁bedürfnis	-7282
▁berichtet	-7283
▁projekten	-7284
▁symmetrie	-7285
▁mobiltelef	-7286
▁sogenannte	-7287
▁teilnehmer	-7288
▁änderungen	-7289
▁flüssigkeit	-7290
▁videospiele	-7291
▁zurückkehren	-7292
wissenschaften	-7293
wissenschaftler	-7294
sw	-7295
vo	-7296
500	-7297
don	-7298
erk	-7299
kra	-7300
tic	-7301
▁cm	-7302
appt	-7303
king	-7304
otto	-7305
städ	-7306
ähen	-7307
üger	-7308
▁120	-7309
▁vul	-7310
leute	-7311
ohlen	-7312
romos	-7313
▁ehre	-7314
▁füße	-7315
führer	-7316
geräte	-7317
rieren	-7318
uchtet	-7319
▁carol	-7320
▁derek	-7321
▁exakt	-7322
▁hoher	-7323
▁könne	-7324
▁verde	-7325
▁wirkt	-7326
▁amazon	-7327
▁bildet	-7328
▁center	-7329
▁fliegt	-7330
▁myster	-7331
▁ausgest	-7332
▁büchern	-7333
▁designs	-7334
▁fremden	-7335
▁geteilt	-7336
▁verlauf	-7337
▁anführer	-7338
▁eingehen	-7339
▁erklärte	-7340
▁fettleib	-7341
▁intensiv	-7342
▁beitragen	-7343
▁effizienz	-7344
▁empfinden	-7345
▁plattform	-7346
▁verrückte	-7347
▁weibliche	-7348
▁antwortete	-7349
▁beeindruck	-7350
▁öffentlich	-7351
▁anwendungen	-7352
▁eigentliche	-7353
▁erwartungen	-7354
▁katastrophen	-7355
▁wohlbefinden	-7356
▁bemerkenswert	-7357
▁verschiedener	-7358
▁identifizieren	-7359
▁persönlichkeit	-7360
▁weltbevölkerung	-7361
sl	-7362
bit	-7363
ike	-7364
ses	-7365
,000	-7366
hiop	-7367
sper	-7368
▁bob	-7369
▁dns	-7370
▁kab	-7371
▁ört	-7372
anzig	-7373
▁lese	-7374
▁manh	-7375
▁saal	-7376
▁zwöl	-7377
ausend	-7378
▁ehren	-7379
▁garan	-7380
▁logik	-7381
▁pferd	-7382
▁ruhig	-7383
▁satur	-7384
▁texas	-7385
▁tritt	-7386
▁übert	-7387
dringen	-7388
gezogen	-7389
▁drehte	-7390
▁explod	-7391
▁gewann	-7392
▁glücks	-7393
▁keinem	-7394
▁oberen	-7395
▁preise	-7396
▁stirbt	-7397
▁uganda	-7398
▁umgang	-7399
▁wartet	-7400
▁wenden	-7401
▁äthiop	-7402
▁argumen	-7403
▁dichter	-7404
▁geraten	-7405
▁lehrern	-7406
▁nirgend	-7407
▁symmetr	-7408
▁gebieten	-7409
▁hindurch	-7410
▁original	-7411
▁ausmachen	-7412
▁errichten	-7413
▁intuition	-7414
▁weltweite	-7415
▁funktionen	-7416
▁sichtweise	-7417
▁wirklichen	-7418
▁analysieren	-7419
▁komponenten	-7420
▁konsumenten	-7421
▁verbesserung	-7422
ny	-7423
oo	-7424
▁bf	-7425
ftig	-7426
ilen	-7427
strä	-7428
äger	-7429
▁ank	-7430
▁aug	-7431
▁fau	-7432
▁hai	-7433
▁ham	-7434
▁lim	-7435
andem	-7436
auben	-7437
euern	-7438
grenz	-7439
orter	-7440
stete	-7441
▁dame	-7442
▁nano	-7443
▁thun	-7444
anlage	-7445
drehen	-7446
heimer	-7447
körper	-7448
spanne	-7449
▁apple	-7450
▁beruh	-7451
▁brach	-7452
▁jenen	-7453
▁lande	-7454
▁meere	-7455
▁wände	-7456
▁zivil	-7457
▁befest	-7458
▁keines	-7459
▁reflek	-7460
▁respek	-7461
▁stille	-7462
▁vierte	-7463
▁paralle	-7464
▁schokol	-7465
▁stärken	-7466
▁tauchen	-7467
▁ausgehen	-7468
▁autismus	-7469
▁schweine	-7470
▁teleskop	-7471
▁zugleich	-7472
▁auftreten	-7473
▁austausch	-7474
▁geschmack	-7475
▁infiziert	-7476
▁ausgegeben	-7477
▁teilnehmen	-7478
▁aufeinander	-7479
▁katastrophe	-7480
▁oberflächen	-7481
▁zukünftigen	-7482
▁andererseits	-7483
▁geschichtener	-7484
▁gleichgewicht	-7485
▁traditionelle	-7486
▁bemerkenswerte	-7487
bir	-7488
mor	-7489
sex	-7490
▁26	-7491
▁28	-7492
▁65	-7493
▁vi	-7494
tien	-7495
tika	-7496
ühen	-7497
▁hoh	-7498
▁mah	-7499
▁ren	-7500
alley	-7501
größe	-7502
lösen	-7503
▁1980	-7504
▁bier	-7505
▁bord	-7506
▁juni	-7507
▁seil	-7508
gebung	-7509
izient	-7510
ogramm	-7511
steine	-7512
▁braun	-7513
▁conne	-7514
▁haare	-7515
▁szene	-7516
▁zweit	-7517
▁jünger	-7518
▁kredit	-7519
▁niveau	-7520
▁paläst	-7521
▁potent	-7522
▁sprung	-7523
chnitten	-7524
gefallen	-7525
geschäft	-7526
▁analyse	-7527
▁höheren	-7528
▁liefert	-7529
▁neulich	-7530
▁raketen	-7531
▁rechner	-7532
▁richten	-7533
▁träumen	-7534
▁verwirk	-7535
▁zentral	-7536
▁dokument	-7537
▁feedback	-7538
▁mitglied	-7539
▁riesiges	-7540
▁denkweise	-7541
▁gesammelt	-7542
▁nachdenkt	-7543
▁politisch	-7544
▁positiven	-7545
▁techniken	-7546
▁ungeheuer	-7547
▁wiederher	-7548
ischerweise	-7549
▁außerorden	-7550
▁britischen	-7551
▁entstehung	-7552
▁versorgung	-7553
▁willkommen	-7554
▁organisiert	-7555
▁festgestellt	-7556
▁irgendwelche	-7557
▁verschwindet	-7558
▁globalisierung	-7559
ci	-7560
nd	-7561
üd	-7562
aku	-7563
ham	-7564
ope	-7565
sph	-7566
▁95	-7567
▁ye	-7568
holt	-7569
nehm	-7570
pack	-7571
rang	-7572
üren	-7573
▁arz	-7574
▁gei	-7575
▁hob	-7576
▁hon	-7577
▁zen	-7578
eiter	-7579
endes	-7580
firma	-7581
ratet	-7582
▁brie	-7583
▁last	-7584
▁mist	-7585
lament	-7586
▁autob	-7587
▁circa	-7588
▁enkel	-7589
▁klick	-7590
▁neutr	-7591
▁wohlt	-7592
fleisch	-7593
quellen	-7594
▁assozi	-7595
▁authen	-7596
▁belast	-7597
▁ehemal	-7598
▁frustr	-7599
▁handys	-7600
▁martin	-7601
▁metaph	-7602
▁polizi	-7603
▁regenw	-7604
▁vagina	-7605
mögliche	-7606
▁benutze	-7607
▁erfolgs	-7608
▁flederm	-7609
▁großzüg	-7610
▁jeweils	-7611
▁kinders	-7612
▁pflanze	-7613
▁bedauern	-7614
▁fahrzeug	-7615
▁geograph	-7616
▁umstände	-7617
geschlagen	-7618
▁abenteuer	-7619
▁denselben	-7620
▁internets	-7621
▁statistik	-7622
▁angesichts	-7623
▁künstliche	-7624
▁nationalen	-7625
▁kulturellen	-7626
▁sogenannten	-7627
▁erkrankungen	-7628
▁intelligente	-7629
▁0,	-7630
grad	-7631
mith	-7632
okra	-7633
schü	-7634
soft	-7635
▁leb	-7636
ffekt	-7637
ridge	-7638
ülern	-7639
▁gand	-7640
▁grau	-7641
▁häss	-7642
▁mahl	-7643
▁sper	-7644
▁trat	-7645
andern	-7646
chnung	-7647
fachen	-7648
gewebe	-7649
mensch	-7650
summen	-7651
wellen	-7652
▁befür	-7653
▁bewäl	-7654
▁flach	-7655
▁gedul	-7656
▁graus	-7657
▁legte	-7658
▁linke	-7659
▁ballon	-7660
▁budget	-7661
▁dinger	-7662
▁frucht	-7663
▁kandid	-7664
▁metern	-7665
▁moskit	-7666
▁nahezu	-7667
▁poster	-7668
▁recher	-7669
ologisch	-7670
zukommen	-7671
▁angehen	-7672
▁greifen	-7673
▁kreiert	-7674
▁science	-7675
▁systems	-7676
▁vorgang	-7677
ulationen	-7678
▁begrenzt	-7679
▁gegessen	-7680
▁benutzten	-7681
▁gestartet	-7682
▁höhepunkt	-7683
▁inklusive	-7684
▁physische	-7685
▁angemessen	-7686
▁asteroiden	-7687
▁technische	-7688
▁diskutieren	-7689
▁nachhaltige	-7690
▁wiederholen	-7691
▁berechnungen	-7692
▁entschlossen	-7693
▁ausschließlich	-7694
tn	-7695
dro	-7696
kal	-7697
mat	-7698
▁32	-7699
boot	-7700
ffin	-7701
iens	-7702
leit	-7703
orte	-7704
rick	-7705
▁kul	-7706
▁tee	-7707
aster	-7708
weist	-7709
▁2003	-7710
▁anre	-7711
▁bran	-7712
▁bron	-7713
▁harm	-7714
▁risk	-7715
▁schi	-7716
▁skal	-7717
▁urkn	-7718
andelt	-7719
itiven	-7720
reicht	-7721
stisch	-7722
wirken	-7723
▁altes	-7724
▁bedro	-7725
▁green	-7726
▁higgs	-7727
▁lehre	-7728
▁onkel	-7729
▁smith	-7730
▁stieg	-7731
brochen	-7732
gemacht	-7733
politik	-7734
steigen	-7735
wendung	-7736
▁dialog	-7737
▁echtes	-7738
▁filmen	-7739
▁januar	-7740
▁patent	-7741
▁sektor	-7742
▁sprich	-7743
▁beschäd	-7744
▁bevorzu	-7745
▁diesmal	-7746
▁enormen	-7747
▁inhalte	-7748
▁manhatt	-7749
▁negativ	-7750
▁ursache	-7751
▁zurecht	-7752
regierung	-7753
schließen	-7754
▁baseball	-7755
▁betracht	-7756
▁bewahren	-7757
▁diplomat	-7758
▁konzepte	-7759
▁symptome	-7760
▁wünschen	-7761
alisierten	-7762
▁orchester	-7763
▁visuellen	-7764
▁weihnacht	-7765
▁kommerziel	-7766
▁operationen	-7767
▁profitieren	-7768
▁zurückgehen	-7769
▁hinsichtlich	-7770
▁entscheidende	-7771
▁wunderschönen	-7772
bie	-7773
flu	-7774
fot	-7775
ost	-7776
rey	-7777
urr	-7778
▁dü	-7779
akul	-7780
ammt	-7781
same	-7782
tere	-7783
▁alz	-7784
▁zig	-7785
ammen	-7786
diger	-7787
heber	-7788
kamer	-7789
soren	-7790
▁2001	-7791
▁2006	-7792
▁enzy	-7793
▁mamm	-7794
▁nest	-7795
▁stet	-7796
andert	-7797
dioxid	-7798
gelegt	-7799
lehrer	-7800
ramide	-7801
▁ausbr	-7802
▁einbe	-7803
▁freie	-7804
▁gigan	-7805
▁spont	-7806
▁stick	-7807
▁waffe	-7808
▁willi	-7809
gebäude	-7810
zugehen	-7811
▁abends	-7812
▁babies	-7813
▁brauch	-7814
▁clever	-7815
▁ebenen	-7816
▁fließt	-7817
▁leiter	-7818
▁oxford	-7819
▁praxis	-7820
▁ruanda	-7821
▁synthe	-7822
▁verhei	-7823
▁wahren	-7824
▁brechen	-7825
▁ersetzt	-7826
▁höchste	-7827
▁lichter	-7828
▁muskeln	-7829
▁unerwar	-7830
▁verließ	-7831
▁vernünf	-7832
▁energien	-7833
▁hundertt	-7834
▁sozialer	-7835
▁vorträge	-7836
▁alzheimer	-7837
▁irgendwas	-7838
▁microsoft	-7839
▁parlament	-7840
▁englischen	-7841
▁journalist	-7842
▁reaktionen	-7843
▁reparieren	-7844
▁schlimmsten	-7845
▁terrorismus	-7846
▁komplizierte	-7847
▁faszinierende	-7848
▁zufriedenheit	-7849
bu	-7850
ki	-7851
aps	-7852
bru	-7853
ech	-7854
▁av	-7855
▁pc	-7856
appe	-7857
baum	-7858
gefä	-7859
klar	-7860
ktes	-7861
stät	-7862
uell	-7863
zten	-7864
ügel	-7865
▁ast	-7866
▁dum	-7867
▁hen	-7868
▁krä	-7869
▁lux	-7870
▁rem	-7871
letzt	-7872
mails	-7873
ppich	-7874
ächer	-7875
▁befr	-7876
▁brei	-7877
▁gete	-7878
▁lärm	-7879
▁meet	-7880
▁sieh	-7881
straße	-7882
▁entsp	-7883
▁event	-7884
▁katze	-7885
▁käfer	-7886
▁magne	-7887
▁prima	-7888
▁stärk	-7889
▁volle	-7890
▁werbe	-7891
▁wirft	-7892
staaten	-7893
tragung	-7894
▁füllen	-7895
▁obdach	-7896
▁profit	-7897
▁therap	-7898
▁bericht	-7899
▁kontinu	-7900
▁kümmert	-7901
▁verbrei	-7902
▁zweites	-7903
ianischen	-7904
setzungen	-7905
▁anbieten	-7906
▁ausmacht	-7907
▁befreien	-7908
▁diabetes	-7909
▁eröffnet	-7910
▁fantasie	-7911
▁führungs	-7912
▁gebrauch	-7913
▁männchen	-7914
▁schließt	-7915
▁schnelle	-7916
▁theorien	-7917
▁änderung	-7918
▁bewegungs	-7919
▁dimension	-7920
▁gespräche	-7921
▁gleichung	-7922
▁hollywood	-7923
▁konflikte	-7924
▁manhattan	-7925
▁schrieben	-7926
▁treibhaus	-7927
▁täuschung	-7928
▁wiederauf	-7929
▁abendessen	-7930
▁ausdrücken	-7931
▁dramatisch	-7932
▁elektronen	-7933
▁nachmittag	-7934
▁physischen	-7935
▁schwestern	-7936
▁standpunkt	-7937
▁treibstoff	-7938
▁unsichtbar	-7939
▁wiederholt	-7940
▁transparenz	-7941
▁versprechen	-7942
▁abhängigkeit	-7943
▁schauspieler	-7944
▁erstaunlichen	-7945
▁komplizierter	-7946
▁repräsentiert	-7947
▁	-7948
e	-7949
n	-7950
i	-7951
s	-7952
r	-7953
t	-7954
a	-7955
d	-7956
h	-7957
u	-7958
l	-7959
c	-7960
m	-7961
o	-7962
g	-7963
w	-7964
b	-7965
,	-7966
f	-7967
k	-7968
.	-7969
z	-7970
v	-7971
p	-7972
ü	-7973
ä	-7974
ö	-7975
j	-7976
;	-7977
-	-7978
&	-7979
q	-7980
ß	-7981
0	-7982
y	-7983
:	-7984
?	-7985
1	-7986
–	-7987
x	-7988
2	-7989
5	-7990
9	-7991
3	-7992
4	-7993
8	-7994
6	-7995
