[PAD]	0
[UNK]	0
[BOS]	0
[EOS]	0
▁t	-0
▁th	-1
▁a	-2
▁i	-3
▁w	-4
▁the	-5
▁,	-6
▁s	-7
re	-8
▁o	-9
▁.	-10
in	-11
at	-12
nd	-13
er	-14
ou	-15
▁c	-16
▁b	-17
▁&	-18
os	-19
▁h	-20
▁m	-21
▁and	-22
ing	-23
ap	-24
en	-25
▁p	-26
on	-27
▁to	-28
▁f	-29
▁d	-30
an	-31
es	-32
apos	-33
▁of	-34
ll	-35
or	-36
▁in	-37
▁l	-38
is	-39
ed	-40
▁y	-41
it	-42
ar	-43
▁that	-44
▁g	-45
ot	-46
▁we	-47
▁n	-48
▁you	-49
om	-50
as	-51
▁wh	-52
▁it	-53
ic	-54
le	-55
ve	-56
al	-57
▁e	-58
ow	-59
▁is	-60
▁be	-61
us	-62
ut	-63
ion	-64
et	-65
▁on	-66
▁re	-67
ent	-68
ct	-69
▁this	-70
qu	-71
ld	-72
ver	-73
ay	-74
▁so	-75
▁ha	-76
all	-77
▁st	-78
id	-79
ur	-80
ig	-81
▁he	-82
ch	-83
ly	-84
quot	-85
ro	-86
ke	-87
▁for	-88
ce	-89
se	-90
▁they	-91
▁an	-92
▁was	-93
▁do	-94
am	-95
im	-96
ir	-97
▁u	-98
op	-99
▁-	-100
▁--	-101
ith	-102
▁go	-103
▁li	-104
▁are	-105
st	-106
▁k	-107
ally	-108
th	-109
▁with	-110
▁what	-111
▁se	-112
▁ab	-113
▁have	-114
▁can	-115
▁but	-116
ra	-117
▁as	-118
▁sh	-119
▁j	-120
out	-121
ol	-122
ation	-123
ht	-124
▁ne	-125
▁com	-126
▁wor	-127
ere	-128
▁at	-129
▁?	-130
ad	-131
very	-132
▁ch	-133
▁r	-134
▁there	-135
▁me	-136
▁about	-137
ould	-138
▁all	-139
ill	-140
▁not	-141
ter	-142
▁fr	-143
od	-144
il	-145
ant	-146
ge	-147
ul	-148
ust	-149
▁ex	-150
▁som	-151
▁de	-152
ore	-153
ers	-154
▁pro	-155
▁or	-156
▁my	-157
use	-158
▁pe	-159
ight	-160
▁one	-161
▁con	-162
um	-163
art	-164
▁peop	-165
▁people	-166
ure	-167
ear	-168
▁bec	-169
▁lo	-170
ess	-171
ck	-172
▁like	-173
ok	-174
▁if	-175
▁from	-176
ate	-177
est	-178
ive	-179
▁ma	-180
ity	-181
ies	-182
ect	-183
▁v	-184
ist	-185
▁kn	-186
ble	-187
▁al	-188
▁te	-189
▁now	-190
ind	-191
if	-192
nt	-193
▁our	-194
▁int	-195
▁just	-196
▁these	-197
▁us	-198
▁out	-199
ink	-200
▁sp	-201
▁know	-202
rou	-203
ause	-204
▁thing	-205
▁:	-206
un	-207
▁when	-208
▁tr	-209
▁because	-210
▁see	-211
▁them	-212
and	-213
▁very	-214
ie	-215
▁up	-216
▁how	-217
ich	-218
▁think	-219
▁pl	-220
▁get	-221
▁who	-222
her	-223
ort	-224
▁by	-225
▁some	-226
ci	-227
▁1	-228
▁act	-229
iv	-230
ain	-231
▁going	-232
▁sa	-233
▁your	-234
og	-235
one	-236
▁which	-237
el	-238
▁im	-239
▁year	-240
▁had	-241
▁more	-242
▁here	-243
▁en	-244
▁tim	-245
▁look	-246
▁su	-247
em	-248
ost	-249
ine	-250
▁would	-251
ast	-252
ame	-253
our	-254
▁comp	-255
▁ta	-256
▁really	-257
▁their	-258
ose	-259
▁were	-260
ment	-261
ually	-262
▁then	-263
▁want	-264
ous	-265
▁work	-266
▁world	-267
ard	-268
▁le	-269
reat	-270
gh	-271
iz	-272
act	-273
▁way	-274
ack	-275
are	-276
▁every	-277
hing	-278
▁no	-279
▁co	-280
▁than	-281
▁has	-282
▁un	-283
▁per	-284
▁don	-285
ans	-286
ther	-287
▁exp	-288
ab	-289
▁time	-290
▁ev	-291
▁man	-292
▁actually	-293
▁say	-294
pp	-295
▁into	-296
▁will	-297
▁where	-298
app	-299
▁fe	-300
ide	-301
ild	-302
ag	-303
▁could	-304
ong	-305
▁qu	-306
ace	-307
▁pre	-308
▁ag	-309
alk	-310
▁things	-311
ions	-312
ud	-313
itt	-314
▁years	-315
▁other	-316
age	-317
▁did	-318
▁somet	-319
▁am	-320
ence	-321
▁well	-322
▁ar	-323
▁pr	-324
00	-325
▁af	-326
▁tw	-327
▁any	-328
▁cl	-329
▁new	-330
▁she	-331
nder	-332
ical	-333
ach	-334
▁right	-335
▁happ	-336
▁make	-337
iff	-338
▁been	-339
▁said	-340
pt	-341
fe	-342
▁bu	-343
▁diff	-344
ia	-345
▁2	-346
▁start	-347
▁over	-348
▁need	-349
▁dis	-350
▁part	-351
▁something	-352
own	-353
▁fir	-354
▁two	-355
so	-356
▁mo	-357
ry	-358
▁ro	-359
ree	-360
ory	-361
olog	-362
▁imp	-363
▁first	-364
ip	-365
▁back	-366
▁po	-367
ass	-368
▁kind	-369
ire	-370
▁those	-371
▁got	-372
ens	-373
round	-374
ite	-375
ign	-376
ice	-377
orm	-378
▁his	-379
ri	-380
▁call	-381
▁talk	-382
de	-383
▁ph	-384
ount	-385
ff	-386
▁mu	-387
ittle	-388
ang	-389
▁little	-390
sel	-391
ater	-392
ound	-393
cent	-394
▁differe	-395
▁also	-396
▁most	-397
lo	-398
▁cont	-399
▁spe	-400
ber	-401
ac	-402
▁much	-403
▁ac	-404
ue	-405
▁des	-406
ght	-407
▁life	-408
▁lot	-409
ves	-410
▁;	-411
ult	-412
▁fo	-413
ple	-414
way	-415
oss	-416
▁sy	-417
ody	-418
▁under	-419
▁bet	-420
ving	-421
▁even	-422
▁ad	-423
rain	-424
▁ind	-425
vel	-426
▁bo	-427
▁only	-428
able	-429
king	-430
ome	-431
ated	-432
▁res	-433
▁good	-434
ep	-435
▁br	-436
▁take	-437
▁hum	-438
▁day	-439
co	-440
ations	-441
▁her	-442
▁many	-443
▁let	-444
▁em	-445
ick	-446
res	-447
uct	-448
ish	-449
▁does	-450
rough	-451
other	-452
▁down	-453
▁show	-454
ell	-455
▁gr	-456
▁ide	-457
int	-458
▁different	-459
▁through	-460
ict	-461
▁why	-462
▁put	-463
▁around	-464
red	-465
ms	-466
▁may	-467
▁real	-468
▁comm	-469
ase	-470
▁inter	-471
ial	-472
ents	-473
▁sc	-474
ark	-475
▁tell	-476
urn	-477
ance	-478
▁off	-479
▁use	-480
cess	-481
▁being	-482
day	-483
ath	-484
▁great	-485
▁sm	-486
ange	-487
les	-488
chn	-489
▁thou	-490
▁come	-491
ade	-492
▁big	-493
form	-494
▁gen	-495
▁inc	-496
ak	-497
ary	-498
▁wr	-499
ors	-500
ars	-501
ject	-502
wn	-503
▁proble	-504
▁techn	-505
ric	-506
▁three	-507
▁try	-508
▁same	-509
▁happen	-510
be	-511
ting	-512
stem	-513
ether	-514
ful	-515
uc	-516
▁fact	-517
ys	-518
▁count	-519
▁doing	-520
▁sur	-521
ual	-522
▁human	-523
▁pers	-524
ning	-525
per	-526
xt	-527
▁bl	-528
ile	-529
ically	-530
▁str	-531
▁cr	-532
ible	-533
ology	-534
▁child	-535
ren	-536
▁after	-537
▁dr	-538
▁gu	-539
▁find	-540
ower	-541
▁build	-542
▁percent	-543
ved	-544
iver	-545
▁system	-546
illion	-547
ons	-548
▁tra	-549
▁sim	-550
ib	-551
▁again	-552
▁ra	-553
ces	-554
body	-555
▁app	-556
▁dec	-557
thing	-558
ord	-559
▁stud	-560
fore	-561
▁called	-562
▁ear	-563
▁long	-564
▁fl	-565
ious	-566
▁car	-567
ics	-568
self	-569
▁rem	-570
▁inv	-571
ition	-572
nds	-573
▁made	-574
ating	-575
▁inst	-576
▁today	-577
▁own	-578
av	-579
igh	-580
▁exper	-581
▁bel	-582
▁should	-583
ress	-584
▁lear	-585
▁ob	-586
▁design	-587
ian	-588
▁quest	-589
▁bas	-590
▁sch	-591
cial	-592
ft	-593
we	-594
erest	-595
ize	-596
▁underst	-597
▁jo	-598
con	-599
▁last	-600
▁import	-601
ates	-602
▁sci	-603
▁turn	-604
▁play	-605
lic	-606
te	-607
▁thought	-608
▁creat	-609
ph	-610
▁person	-611
▁ke	-612
▁interest	-613
▁rel	-614
▁brain	-615
000	-616
▁its	-617
▁another	-618
▁him	-619
▁end	-620
▁hel	-621
▁wom	-622
ty	-623
▁mean	-624
▁feel	-625
▁ask	-626
▁thank	-627
▁ins	-628
▁change	-629
▁cour	-630
▁idea	-631
ub	-632
ities	-633
ied	-634
▁didn	-635
▁trans	-636
▁3	-637
amp	-638
▁before	-639
als	-640
▁ele	-641
▁important	-642
▁rep	-643
ull	-644
ution	-645
▁went	-646
▁cons	-647
ool	-648
,000	-649
▁started	-650
▁art	-651
▁prod	-652
▁story	-653
▁give	-654
▁understand	-655
ough	-656
ise	-657
▁help	-658
gan	-659
ope	-660
▁mon	-661
▁never	-662
ail	-663
▁coll	-664
▁power	-665
ility	-666
▁point	-667
▁imag	-668
ular	-669
▁better	-670
▁school	-671
▁pres	-672
▁plan	-673
▁found	-674
▁problem	-675
▁pat	-676
▁kid	-677
▁belie	-678
erg	-679
▁bit	-680
▁course	-681
pe	-682
kes	-683
ily	-684
ert	-685
ists	-686
▁pol	-687
▁next	-688
▁might	-689
▁sort	-690
▁fam	-691
▁sol	-692
▁19	-693
▁sl	-694
▁ok	-695
▁eng	-696
▁ent	-697
▁few	-698
▁num	-699
▁each	-700
▁still	-701
ix	-702
▁tog	-703
▁together	-704
▁mod	-705
ward	-706
▁nat	-707
▁cent	-708
▁hu	-709
▁ago	-710
▁came	-711
▁high	-712
▁technology	-713
▁med	-714
▁ser	-715
▁able	-716
ense	-717
ather	-718
▁la	-719
oth	-720
▁place	-721
▁water	-722
▁comple	-723
velop	-724
▁min	-725
▁four	-726
eric	-727
ween	-728
▁ext	-729
▁commun	-730
read	-731
alth	-732
▁develop	-733
▁mus	-734
▁ed	-735
▁between	-736
▁10	-737
ness	-738
ited	-739
▁learn	-740
▁gra	-741
▁rec	-742
▁exam	-743
▁seco	-744
old	-745
atch	-746
▁used	-747
▁fin	-748
ave	-749
arch	-750
▁love	-751
▁20	-752
ience	-753
▁op	-754
▁ter	-755
aph	-756
ines	-757
▁dat	-758
ger	-759
iss	-760
▁old	-761
ized	-762
▁mom	-763
▁light	-764
▁small	-765
ven	-766
▁too	-767
▁question	-768
▁bi	-769
▁el	-770
▁maybe	-771
ures	-772
▁cre	-773
▁looking	-774
▁grow	-775
▁done	-776
ork	-777
ific	-778
iness	-779
▁met	-780
▁cell	-781
cept	-782
▁comput	-783
▁read	-784
▁children	-785
▁stu	-786
▁att	-787
▁americ	-788
▁eff	-789
▁whole	-790
ered	-791
pl	-792
▁sk	-793
▁lar	-794
ably	-795
ets	-796
oney	-797
▁partic	-798
▁data	-799
▁example	-800
▁expl	-801
ways	-802
▁afric	-803
▁doesn	-804
▁move	-805
oc	-806
▁far	-807
▁care	-808
▁wo	-809
ute	-810
conom	-811
▁5	-812
az	-813
selves	-814
ds	-815
▁beh	-816
▁econom	-817
▁million	-818
cy	-819
▁bus	-820
▁project	-821
ative	-822
▁less	-823
▁cap	-824
▁wanted	-825
▁building	-826
ract	-827
▁giv	-828
▁univer	-829
▁live	-830
▁five	-831
▁war	-832
formation	-833
▁health	-834
▁gener	-835
▁book	-836
▁working	-837
▁trying	-838
▁poss	-839
ural	-840
▁second	-841
▁away	-842
▁women	-843
▁sub	-844
▁hard	-845
▁reas	-846
▁money	-847
ug	-848
▁believe	-849
▁everything	-850
▁pict	-851
▁supp	-852
▁ever	-853
▁always	-854
▁chang	-855
▁space	-856
▁elect	-857
▁vis	-858
▁form	-859
gr	-860
▁kids	-861
cer	-862
▁country	-863
ands	-864
nect	-865
▁inf	-866
tern	-867
▁cor	-868
ational	-869
gin	-870
▁food	-871
ments	-872
▁teach	-873
vers	-874
▁4	-875
▁using	-876
▁open	-877
ah	-878
▁prob	-879
▁energ	-880
▁doll	-881
wh	-882
▁number	-883
▁anim	-884
ote	-885
ism	-886
▁dem	-887
▁cou	-888
▁fut	-889
▁sing	-890
▁run	-891
▁mark	-892
▁information	-893
▁took	-894
aut	-895
led	-896
▁organ	-897
▁mind	-898
▁times	-899
▁resp	-900
▁means	-901
▁thinking	-902
aces	-903
▁fun	-904
air	-905
atter	-906
▁char	-907
▁energy	-908
▁create	-909
its	-910
▁bring	-911
▁glo	-912
▁future	-913
hip	-914
ries	-915
▁earth	-916
▁interesting	-917
ead	-918
▁frie	-919
▁head	-920
▁reg	-921
▁best	-922
▁hand	-923
▁left	-924
alf	-925
ogr	-926
▁home	-927
▁acc	-928
▁walk	-929
▁quite	-930
▁become	-931
ues	-932
▁enough	-933
▁intern	-934
▁gre	-935
ital	-936
vern	-937
▁lead	-938
▁getting	-939
▁spec	-940
ne	-941
ten	-942
▁process	-943
▁fu	-944
roup	-945
▁compan	-946
ks	-947
▁probably	-948
iew	-949
▁cle	-950
▁comes	-951
▁sense	-952
ale	-953
▁says	-954
▁cur	-955
▁group	-956
bal	-957
ention	-958
▁set	-959
▁month	-960
▁z	-961
▁conf	-962
▁beaut	-963
▁air	-964
▁govern	-965
▁connect	-966
iting	-967
▁stuff	-968
▁red	-969
ories	-970
▁without	-971
▁pub	-972
gest	-973
ction	-974
▁social	-975
▁begin	-976
▁making	-977
vir	-978
▁hist	-979
▁product	-980
ouse	-981
ood	-982
ertain	-983
sw	-984
▁sw	-985
ont	-986
▁africa	-987
ner	-988
▁happened	-989
▁talking	-990
cus	-991
▁pop	-992
▁body	-993
nce	-994
▁keep	-995
▁contro	-996
▁half	-997
▁share	-998
lf	-999
ever	-1000
li	-1001
ient	-1002
▁room	-1003
▁dollars	-1004
▁else	-1005
▁pass	-1006
▁science	-1007
▁business	-1008
▁pret	-1009
bs	-1010
▁youn	-1011
ird	-1012
▁200	-1013
viron	-1014
▁col	-1015
▁coming	-1016
▁anything	-1017
▁rese	-1018
▁par	-1019
ced	-1020
▁pie	-1021
▁dist	-1022
aps	-1023
▁environ	-1024
ying	-1025
▁answ	-1026
▁phot	-1027
▁bad	-1028
▁pretty	-1029
▁eas	-1030
▁moment	-1031
▁side	-1032
▁soci	-1033
▁acr	-1034
▁phys	-1035
▁add	-1036
▁val	-1037
ts	-1038
▁six	-1039
olution	-1040
rib	-1041
▁hope	-1042
▁sign	-1043
man	-1044
▁wee	-1045
me	-1046
▁top	-1047
▁lives	-1048
▁sound	-1049
idd	-1050
▁goes	-1051
▁gl	-1052
▁ted	-1053
▁educ	-1054
▁scient	-1055
pr	-1056
▁across	-1057
ety	-1058
imate	-1059
▁makes	-1060
ices	-1061
ins	-1062
▁cult	-1063
▁simple	-1064
▁prof	-1065
▁ty	-1066
fect	-1067
▁research	-1068
▁global	-1069
▁told	-1070
▁model	-1071
uring	-1072
▁allow	-1073
▁reason	-1074
▁bre	-1075
▁once	-1076
▁such	-1077
▁stand	-1078
▁basically	-1079
▁living	-1080
▁mor	-1081
der	-1082
▁music	-1083
str	-1084
▁aut	-1085
▁opp	-1086
▁yet	-1087
ince	-1088
▁picture	-1089
▁che	-1090
▁seen	-1091
▁wonder	-1092
▁ey	-1093
ash	-1094
▁saw	-1095
▁countries	-1096
▁mar	-1097
ina	-1098
ograph	-1099
▁prot	-1100
▁fig	-1101
ided	-1102
▁det	-1103
▁stop	-1104
▁wa	-1105
▁ways	-1106
▁imagine	-1107
ior	-1108
llow	-1109
▁face	-1110
▁city	-1111
▁amaz	-1112
▁matter	-1113
no	-1114
▁sit	-1115
▁okay	-1116
▁mil	-1117
▁while	-1118
▁particular	-1119
ember	-1120
io	-1121
irl	-1122
▁problems	-1123
bo	-1124
▁happens	-1125
▁list	-1126
▁hour	-1127
▁case	-1128
▁family	-1129
▁environment	-1130
ew	-1131
▁later	-1132
▁effect	-1133
where	-1134
▁days	-1135
ings	-1136
▁planet	-1137
▁yes	-1138
▁pain	-1139
▁young	-1140
▁having	-1141
▁experience	-1142
ization	-1143
▁lang	-1144
▁mach	-1145
▁asked	-1146
▁watch	-1147
▁vide	-1148
▁ideas	-1149
work	-1150
▁rob	-1151
most	-1152
▁computer	-1153
iter	-1154
▁inside	-1155
ape	-1156
ots	-1157
▁disco	-1158
ott	-1159
rop	-1160
▁both	-1161
▁stre	-1162
▁blo	-1163
ortun	-1164
▁everybody	-1165
▁complete	-1166
▁lab	-1167
ught	-1168
br	-1169
▁langu	-1170
▁contin	-1171
▁states	-1172
▁cho	-1173
▁certain	-1174
ilt	-1175
▁self	-1176
▁single	-1177
▁history	-1178
ulation	-1179
▁polit	-1180
▁billion	-1181
▁sure	-1182
▁dev	-1183
itive	-1184
▁saying	-1185
▁age	-1186
▁nothing	-1187
▁def	-1188
ready	-1189
▁girl	-1190
▁level	-1191
ality	-1192
▁incred	-1193
▁almost	-1194
▁mag	-1195
▁within	-1196
▁test	-1197
▁equ	-1198
▁vir	-1199
▁loc	-1200
▁treat	-1201
med	-1202
imes	-1203
less	-1204
▁looks	-1205
▁wrong	-1206
▁beautif	-1207
▁news	-1208
▁already	-1209
▁heart	-1210
▁ref	-1211
ank	-1212
▁ca	-1213
▁thous	-1214
▁remember	-1215
orn	-1216
▁unt	-1217
▁fore	-1218
▁whether	-1219
▁oh	-1220
▁hear	-1221
ime	-1222
▁exc	-1223
▁sec	-1224
ury	-1225
▁ge	-1226
▁9	-1227
▁dire	-1228
gram	-1229
▁pos	-1230
▁cost	-1231
▁rest	-1232
▁cells	-1233
uce	-1234
▁cancer	-1235
▁men	-1236
ken	-1237
arent	-1238
▁dise	-1239
▁nature	-1240
▁sou	-1241
▁net	-1242
aterial	-1243
▁leg	-1244
▁state	-1245
▁50	-1246
▁30	-1247
ivid	-1248
▁suc	-1249
▁true	-1250
▁possible	-1251
▁guy	-1252
allen	-1253
▁god	-1254
▁cond	-1255
▁large	-1256
na	-1257
ling	-1258
ivity	-1259
▁beautiful	-1260
▁di	-1261
ants	-1262
up	-1263
ield	-1264
utes	-1265
▁answer	-1266
▁amazing	-1267
▁15	-1268
▁class	-1269
▁exact	-1270
▁often	-1271
ters	-1272
▁tre	-1273
unch	-1274
▁control	-1275
▁looked	-1276
▁fil	-1277
▁mem	-1278
▁heard	-1279
▁kill	-1280
▁cal	-1281
▁public	-1282
pect	-1283
▁100	-1284
▁figure	-1285
▁months	-1286
▁works	-1287
▁material	-1288
lish	-1289
▁oce	-1290
nding	-1291
▁full	-1292
▁program	-1293
osed	-1294
iddle	-1295
▁video	-1296
▁market	-1297
side	-1298
▁ass	-1299
▁since	-1300
▁someone	-1301
▁universe	-1302
▁community	-1303
ware	-1304
aper	-1305
land	-1306
▁challen	-1307
▁aud	-1308
vious	-1309
uck	-1310
ering	-1311
▁india	-1312
▁arch	-1313
▁instead	-1314
▁deep	-1315
▁middle	-1316
▁united	-1317
ately	-1318
ages	-1319
ene	-1320
▁adv	-1321
ases	-1322
ndred	-1323
▁must	-1324
cle	-1325
▁law	-1326
▁ret	-1327
▁hundred	-1328
▁myself	-1329
▁isn	-1330
▁until	-1331
▁pay	-1332
▁engine	-1333
▁government	-1334
to	-1335
▁piece	-1336
▁past	-1337
▁experim	-1338
▁built	-1339
▁stories	-1340
ier	-1341
▁words	-1342
▁education	-1343
▁sometimes	-1344
▁..	-1345
atic	-1346
▁dra	-1347
▁iss	-1348
▁individ	-1349
▁...	-1350
▁nor	-1351
▁ye	-1352
▁line	-1353
get	-1354
ane	-1355
▁follow	-1356
ians	-1357
ired	-1358
▁order	-1359
▁entire	-1360
▁ste	-1361
▁taking	-1362
▁house	-1363
▁couple	-1364
▁decided	-1365
▁species	-1366
row	-1367
ames	-1368
▁language	-1369
▁land	-1370
▁incre	-1371
bers	-1372
line	-1373
▁mother	-1374
▁places	-1375
▁internet	-1376
▁somebody	-1377
▁8	-1378
▁wind	-1379
▁rather	-1380
▁front	-1381
▁green	-1382
▁mic	-1383
▁rev	-1384
▁train	-1385
▁abs	-1386
▁math	-1387
▁tool	-1388
▁night	-1389
▁individual	-1390
▁result	-1391
▁ourselves	-1392
▁free	-1393
▁cra	-1394
▁though	-1395
▁av	-1396
▁sun	-1397
ional	-1398
▁complex	-1399
ives	-1400
▁kinds	-1401
▁quick	-1402
▁object	-1403
▁dep	-1404
omes	-1405
▁exactly	-1406
ined	-1407
etic	-1408
▁view	-1409
ental	-1410
▁name	-1411
▁struct	-1412
acter	-1413
▁bab	-1414
▁job	-1415
▁inno	-1416
▁mass	-1417
▁completely	-1418
▁huge	-1419
▁wasn	-1420
▁everyone	-1421
▁themselves	-1422
ats	-1423
▁deal	-1424
91	-1425
▁bro	-1426
▁hy	-1427
▁became	-1428
▁minutes	-1429
▁har	-1430
▁focus	-1431
▁indust	-1432
▁close	-1433
▁oil	-1434
▁yeah	-1435
93	-1436
urs	-1437
▁fly	-1438
▁game	-1439
▁woman	-1440
▁itself	-1441
ond	-1442
▁step	-1443
▁friends	-1444
▁behav	-1445
▁third	-1446
▁turns	-1447
▁students	-1448
ream	-1449
ogn	-1450
ability	-1451
▁society	-1452
▁success	-1453
▁learned	-1454
▁animals	-1455
▁created	-1456
ron	-1457
sy	-1458
▁happy	-1459
▁meet	-1460
▁gets	-1461
▁company	-1462
cc	-1463
▁along	-1464
▁ant	-1465
ision	-1466
▁america	-1467
ock	-1468
▁cam	-1469
▁rad	-1470
▁happening	-1471
91;	-1472
93;	-1473
ator	-1474
▁ris	-1475
wards	-1476
aster	-1477
▁ones	-1478
▁study	-1479
▁ill	-1480
itting	-1481
vation	-1482
▁invest	-1483
ien	-1484
▁mot	-1485
▁ho	-1486
▁word	-1487
▁cir	-1488
▁mill	-1489
▁shows	-1490
ush	-1491
▁emp	-1492
▁guys	-1493
▁relations	-1494
ident	-1495
▁meas	-1496
▁team	-1497
▁ve	-1498
face	-1499
lud	-1500
▁ple	-1501
istic	-1502
▁bott	-1503
▁clear	-1504
▁norm	-1505
▁china	-1506
▁natural	-1507
ared	-1508
▁knew	-1509
▁ocean	-1510
ump	-1511
▁won	-1512
ibly	-1513
▁hours	-1514
▁explain	-1515
▁univers	-1516
ming	-1517
▁couldn	-1518
▁listen	-1519
▁disease	-1520
▁es	-1521
▁hold	-1522
▁recent	-1523
dd	-1524
▁collect	-1525
▁present	-1526
haps	-1527
icult	-1528
▁miss	-1529
▁perhaps	-1530
▁early	-1531
▁field	-1532
▁opportun	-1533
▁worked	-1534
▁oper	-1535
▁expect	-1536
ctor	-1537
▁super	-1538
▁fund	-1539
▁mess	-1540
▁liter	-1541
▁against	-1542
ern	-1543
▁non	-1544
ption	-1545
▁death	-1546
▁questions	-1547
▁fre	-1548
▁oth	-1549
▁black	-1550
▁parent	-1551
▁pred	-1552
▁amount	-1553
ral	-1554
▁least	-1555
▁neur	-1556
▁moving	-1557
▁others	-1558
▁learning	-1559
▁prov	-1560
que	-1561
▁area	-1562
▁dig	-1563
▁var	-1564
olved	-1565
▁simp	-1566
▁seven	-1567
▁id	-1568
▁cut	-1569
▁lots	-1570
ature	-1571
ients	-1572
▁technolog	-1573
vered	-1574
▁eight	-1575
▁speak	-1576
▁arg	-1577
ake	-1578
▁pot	-1579
▁gave	-1580
▁short	-1581
▁takes	-1582
ged	-1583
▁century	-1584
ium	-1585
not	-1586
▁difficult	-1587
cul	-1588
▁finally	-1589
▁network	-1590
ider	-1591
ones	-1592
aking	-1593
▁sym	-1594
▁colle	-1595
▁rich	-1596
▁machine	-1597
▁obvious	-1598
▁outside	-1599
▁systems	-1600
▁american	-1601
▁wall	-1602
▁during	-1603
▁eur	-1604
▁er	-1605
▁bar	-1606
▁wonderful	-1607
gen	-1608
▁vo	-1609
▁da	-1610
▁extra	-1611
▁bra	-1612
▁interact	-1613
aring	-1614
ither	-1615
ential	-1616
▁jour	-1617
▁sug	-1618
▁needs	-1619
▁protect	-1620
▁record	-1621
▁beginning	-1622
astic	-1623
▁chem	-1624
▁sens	-1625
▁taken	-1626
▁intell	-1627
▁pattern	-1628
▁relationship	-1629
▁york	-1630
▁trad	-1631
▁thousands	-1632
att	-1633
ides	-1634
itect	-1635
▁behavior	-1636
▁architect	-1637
▁drug	-1638
▁culture	-1639
▁difference	-1640
▁tem	-1641
▁typ	-1642
cious	-1643
ising	-1644
▁chr	-1645
▁appro	-1646
▁whatever	-1647
▁vi	-1648
ination	-1649
ret	-1650
sych	-1651
▁low	-1652
ially	-1653
▁powerful	-1654
▁grand	-1655
ully	-1656
▁blue	-1657
▁common	-1658
▁yourself	-1659
▁population	-1660
ero	-1661
▁del	-1662
▁lim	-1663
▁democ	-1664
▁exist	-1665
▁hands	-1666
▁12	-1667
gress	-1668
▁eyes	-1669
utions	-1670
▁given	-1671
▁maj	-1672
inary	-1673
▁surpr	-1674
▁behind	-1675
itions	-1676
ton	-1677
▁18	-1678
▁emot	-1679
▁fail	-1680
▁bir	-1681
▁impro	-1682
▁buy	-1683
▁fall	-1684
▁psych	-1685
▁turned	-1686
▁occ	-1687
▁terms	-1688
▁changed	-1689
▁break	-1690
▁image	-1691
▁perfect	-1692
▁local	-1693
▁leave	-1694
▁parts	-1695
▁seeing	-1696
▁pract	-1697
▁instit	-1698
▁extre	-1699
▁paper	-1700
▁support	-1701
▁audience	-1702
▁communic	-1703
▁cannot	-1704
verage	-1705
▁personal	-1706
▁easy	-1707
▁famil	-1708
▁center	-1709
▁major	-1710
rod	-1711
▁emb	-1712
▁flo	-1713
▁consum	-1714
▁interested	-1715
ented	-1716
ges	-1717
▁cy	-1718
ased	-1719
▁tot	-1720
olute	-1721
▁spend	-1722
ted	-1723
▁40	-1724
▁perform	-1725
▁photograph	-1726
▁pick	-1727
▁relig	-1728
▁friend	-1729
ging	-1730
▁ess	-1731
▁squ	-1732
▁dark	-1733
▁began	-1734
▁europe	-1735
▁serv	-1736
▁absolute	-1737
▁pen	-1738
▁media	-1739
▁south	-1740
▁economic	-1741
▁cop	-1742
▁reach	-1743
▁access	-1744
year	-1745
▁orig	-1746
mer	-1747
▁eat	-1748
itch	-1749
▁week	-1750
▁resour	-1751
osp	-1752
▁ap	-1753
▁size	-1754
▁father	-1755
gs	-1756
▁ground	-1757
▁evolution	-1758
▁longer	-1759
▁simply	-1760
els	-1761
▁gone	-1762
idence	-1763
▁event	-1764
cks	-1765
▁conv	-1766
▁insp	-1767
ule	-1768
▁sea	-1769
fully	-1770
▁surv	-1771
▁direct	-1772
▁includ	-1773
▁enc	-1774
▁stay	-1775
▁realized	-1776
ruct	-1777
▁sex	-1778
iving	-1779
ony	-1780
▁sent	-1781
▁humans	-1782
ney	-1783
▁press	-1784
▁profess	-1785
▁sum	-1786
▁mult	-1787
▁prop	-1788
▁needed	-1789
▁special	-1790
cing	-1791
dden	-1792
ison	-1793
▁feed	-1794
ological	-1795
▁ice	-1796
▁fish	-1797
▁sudden	-1798
▁parents	-1799
ler	-1800
▁civ	-1801
rought	-1802
elt	-1803
▁vers	-1804
▁tried	-1805
▁desc	-1806
▁situ	-1807
▁dream	-1808
▁ident	-1809
▁camp	-1810
▁value	-1811
▁national	-1812
ows	-1813
ror	-1814
▁ir	-1815
▁spent	-1816
▁either	-1817
ledge	-1818
▁pull	-1819
ex	-1820
▁structure	-1821
▁win	-1822
▁fast	-1823
▁film	-1824
▁incredible	-1825
ills	-1826
▁cool	-1827
▁fight	-1828
▁recogn	-1829
▁ability	-1830
ilar	-1831
ouch	-1832
▁feet	-1833
▁mole	-1834
▁electric	-1835
izing	-1836
ru	-1837
▁dna	-1838
▁key	-1839
▁sil	-1840
▁companies	-1841
▁foot	-1842
▁white	-1843
▁sitting	-1844
▁arm	-1845
ibility	-1846
▁growth	-1847
▁quickly	-1848
cl	-1849
▁25	-1850
▁opt	-1851
▁dest	-1852
▁poor	-1853
▁repres	-1854
of	-1855
▁lost	-1856
▁cities	-1857
▁surface	-1858
▁hor	-1859
ators	-1860
▁known	-1861
▁compass	-1862
ax	-1863
ode	-1864
avor	-1865
▁prin	-1866
▁robot	-1867
room	-1868
▁obs	-1869
▁caus	-1870
▁measure	-1871
▁slow	-1872
▁force	-1873
▁stage	-1874
▁wouldn	-1875
▁serious	-1876
▁extreme	-1877
ids	-1878
▁bene	-1879
▁scale	-1880
▁pa	-1881
▁near	-1882
▁produc	-1883
lt	-1884
▁ur	-1885
▁sat	-1886
▁strong	-1887
ised	-1888
▁stat	-1889
▁vill	-1890
end	-1891
ife	-1892
▁nice	-1893
rent	-1894
▁travel	-1895
▁reality	-1896
▁economy	-1897
▁political	-1898
▁hosp	-1899
▁animal	-1900
▁brought	-1901
▁pur	-1902
▁vol	-1903
▁draw	-1904
▁fear	-1905
▁felt	-1906
▁die	-1907
▁web	-1908
▁street	-1909
▁predict	-1910
▁experiment	-1911
inal	-1912
ument	-1913
▁tele	-1914
▁weeks	-1915
▁compassion	-1916
▁sho	-1917
▁born	-1918
iny	-1919
▁books	-1920
he	-1921
▁circ	-1922
▁north	-1923
▁opportunity	-1924
▁technologies	-1925
▁hot	-1926
▁fire	-1927
▁phil	-1928
▁requ	-1929
▁modern	-1930
▁growing	-1931
▁color	-1932
▁anyone	-1933
▁respons	-1934
▁areas	-1935
▁based	-1936
▁write	-1937
ances	-1938
▁wrote	-1939
▁mathem	-1940
▁climate	-1941
ipp	-1942
ford	-1943
▁civil	-1944
▁bottom	-1945
▁morning	-1946
▁starting	-1947
▁soft	-1948
cially	-1949
▁ce	-1950
ively	-1951
ustain	-1952
▁gal	-1953
▁theory	-1954
▁approach	-1955
▁blood	-1956
▁medic	-1957
▁miles	-1958
ards	-1959
ivers	-1960
▁viol	-1961
▁giving	-1962
▁knowledge	-1963
ains	-1964
▁mov	-1965
▁bill	-1966
▁images	-1967
lect	-1968
▁patients	-1969
▁scientists	-1970
▁tradition	-1971
go	-1972
uth	-1973
▁visual	-1974
com	-1975
hood	-1976
ived	-1977
▁changes	-1978
▁revolution	-1979
▁spread	-1980
by	-1981
acy	-1982
▁dead	-1983
▁path	-1984
▁const	-1985
▁similar	-1986
▁developed	-1987
▁mal	-1988
▁impact	-1989
▁gives	-1990
▁deg	-1991
▁cars	-1992
▁crit	-1993
▁priv	-1994
▁sour	-1995
▁feeling	-1996
ny	-1997
▁box	-1998
imens	-1999
▁suggest	-2000
▁numbers	-2001
zy	-2002
ored	-2003
▁fac	-2004
▁camer	-2005
▁seems	-2006
▁touch	-2007
▁forward	-2008
▁attention	-2009
▁understanding	-2010
▁road	-2011
▁average	-2012
▁unf	-2013
▁sell	-2014
erence	-2015
▁auth	-2016
▁depe	-2017
▁shape	-2018
▁tools	-2019
aly	-2020
▁development	-2021
▁challenge	-2022
▁leaders	-2023
▁recently	-2024
▁sal	-2025
▁main	-2026
▁prom	-2027
▁literally	-2028
▁discovered	-2029
▁ach	-2030
▁comb	-2031
entially	-2032
lu	-2033
anger	-2034
▁millions	-2035
▁movement	-2036
▁rul	-2037
amed	-2038
▁dou	-2039
▁poll	-2040
▁current	-2041
▁intellig	-2042
▁ball	-2043
ensive	-2044
▁avail	-2045
▁except	-2046
▁concept	-2047
▁english	-2048
▁meaning	-2049
▁patient	-2050
par	-2051
ried	-2052
bon	-2053
▁stra	-2054
▁compet	-2055
ung	-2056
▁ec	-2057
▁dan	-2058
▁benef	-2059
▁guess	-2060
▁polic	-2061
▁playing	-2062
▁developing	-2063
yn	-2064
ucle	-2065
▁rock	-2066
▁lay	-2067
▁scre	-2068
▁wish	-2069
▁realize	-2070
▁running	-2071
▁sustain	-2072
vent	-2073
▁ult	-2074
▁nobody	-2075
▁telling	-2076
▁physical	-2077
ove	-2078
▁affect	-2079
ik	-2080
apt	-2081
aged	-2082
ified	-2083
▁soon	-2084
amples	-2085
▁favor	-2086
▁hon	-2087
▁absolutely	-2088
ery	-2089
▁ah	-2090
urity	-2091
▁risk	-2092
▁girls	-2093
▁phone	-2094
ression	-2095
▁medical	-2096
▁creating	-2097
▁hundreds	-2098
▁din	-2099
▁fur	-2100
▁showed	-2101
bor	-2102
ned	-2103
iant	-2104
ival	-2105
▁nucle	-2106
▁fundam	-2107
▁normal	-2108
asc	-2109
ateg	-2110
inese	-2111
▁knows	-2112
▁truth	-2113
▁micro	-2114
▁industry	-2115
▁transform	-2116
eter	-2117
▁eye	-2118
▁mount	-2119
▁anybody	-2120
struct	-2121
▁smart	-2122
por	-2123
▁map	-2124
▁neg	-2125
▁espe	-2126
▁flow	-2127
▁post	-2128
▁seem	-2129
▁alone	-2130
▁worth	-2131
▁talked	-2132
▁especially	-2133
loy	-2134
ister	-2135
▁rele	-2136
▁save	-2137
▁proper	-2138
▁general	-2139
▁produce	-2140
▁solution	-2141
▁obviously	-2142
▁incredibly	-2143
▁innovation	-2144
sh	-2145
ift	-2146
iod	-2147
▁est	-2148
▁haven	-2149
▁chinese	-2150
like	-2151
▁period	-2152
▁available	-2153
ique	-2154
ites	-2155
▁baby	-2156
port	-2157
▁suff	-2158
▁solar	-2159
ency	-2160
▁boy	-2161
▁type	-2162
▁trust	-2163
▁ox	-2164
▁emerg	-2165
▁subject	-2166
▁table	-2167
aw	-2168
osph	-2169
▁aren	-2170
▁fair	-2171
▁among	-2172
▁sn	-2173
▁arr	-2174
▁neigh	-2175
▁bigger	-2176
▁becomes	-2177
▁conscious	-2178
arr	-2179
asing	-2180
▁peace	-2181
▁joh	-2182
▁led	-2183
▁games	-2184
▁online	-2185
▁university	-2186
▁tiny	-2187
▁issue	-2188
▁resources	-2189
erm	-2190
ences	-2191
yond	-2192
▁beyond	-2193
▁designed	-2194
oph	-2195
racy	-2196
▁drive	-2197
▁please	-2198
▁situation	-2199
ban	-2200
▁hig	-2201
▁sle	-2202
▁reasons	-2203
▁virus	-2204
▁pictures	-2205
eed	-2206
▁ep	-2207
istan	-2208
▁rate	-2209
ishing	-2210
▁writing	-2211
▁11	-2212
▁eg	-2213
▁fa	-2214
▁eth	-2215
▁achie	-2216
▁device	-2217
bit	-2218
▁solve	-2219
▁putting	-2220
▁changing	-2221
▁security	-2222
▁syn	-2223
▁east	-2224
▁materials	-2225
▁bal	-2226
▁link	-2227
▁tells	-2228
▁defin	-2229
▁sounds	-2230
ades	-2231
▁sever	-2232
ilities	-2233
▁bacter	-2234
▁generation	-2235
▁gt	-2236
chan	-2237
▁bur	-2238
▁office	-2239
erv	-2240
▁80	-2241
▁aw	-2242
▁bed	-2243
▁dom	-2244
▁grad	-2245
▁vision	-2246
▁lt	-2247
▁gas	-2248
▁tas	-2249
▁died	-2250
▁react	-2251
▁voice	-2252
▁carbon	-2253
▁necess	-2254
▁digital	-2255
▁towards	-2256
xic	-2257
▁clos	-2258
▁west	-2259
▁rules	-2260
▁groups	-2261
▁schools	-2262
▁progress	-2263
▁teachers	-2264
unt	-2265
▁hit	-2266
▁nine	-2267
▁prim	-2268
▁passion	-2269
▁happiness	-2270
▁lif	-2271
▁text	-2272
jo	-2273
po	-2274
▁imm	-2275
arily	-2276
▁john	-2277
▁computers	-2278
ude	-2279
▁div	-2280
ished	-2281
oring	-2282
▁port	-2283
▁action	-2284
▁princi	-2285
▁extraord	-2286
ese	-2287
light	-2288
▁goog	-2289
▁several	-2290
▁evidence	-2291
▁suddenly	-2292
lict	-2293
▁skin	-2294
▁basic	-2295
▁asking	-2296
abor	-2297
vert	-2298
▁sold	-2299
▁chance	-2300
▁issues	-2301
▁function	-2302
ify	-2303
▁adm	-2304
▁lea	-2305
ze	-2306
ief	-2307
▁song	-2308
▁clean	-2309
▁lived	-2310
▁involved	-2311
▁rid	-2312
▁character	-2313
▁scientific	-2314
how	-2315
▁speed	-2316
▁danger	-2317
ips	-2318
▁pu	-2319
▁hiv	-2320
▁indeed	-2321
▁projects	-2322
▁certainly	-2323
▁further	-2324
▁hospital	-2325
▁son	-2326
usion	-2327
▁convers	-2328
iar	-2329
▁ast	-2330
▁breat	-2331
▁lad	-2332
▁star	-2333
▁choice	-2334
▁positive	-2335
▁brit	-2336
▁fant	-2337
▁farm	-2338
▁track	-2339
▁message	-2340
▁village	-2341
▁chemical	-2342
ros	-2343
▁bud	-2344
▁encou	-2345
▁particularly	-2346
ously	-2347
▁wants	-2348
▁capital	-2349
▁tend	-2350
▁cross	-2351
▁experien	-2352
omen	-2353
▁sky	-2354
▁report	-2355
▁college	-2356
▁software	-2357
ma	-2358
une	-2359
▁dam	-2360
▁spir	-2361
▁anyway	-2362
▁search	-2363
▁journey	-2364
▁discover	-2365
ai	-2366
gn	-2367
umb	-2368
▁sand	-2369
▁park	-2370
▁safe	-2371
▁potential	-2372
uly	-2373
fort	-2374
view	-2375
▁detail	-2376
▁mechan	-2377
▁dav	-2378
▁isl	-2379
▁rain	-2380
▁attack	-2381
▁google	-2382
▁square	-2383
▁199	-2384
▁trial	-2385
▁showing	-2386
book	-2387
▁hom	-2388
oms	-2389
▁onto	-2390
▁virt	-2391
▁graph	-2392
▁notice	-2393
▁student	-2394
▁exciting	-2395
▁everywhere	-2396
▁capt	-2397
▁send	-2398
▁plant	-2399
▁stick	-2400
▁starts	-2401
▁democracy	-2402
▁tar	-2403
▁birth	-2404
▁effic	-2405
▁nuclear	-2406
▁totally	-2407
medi	-2408
▁moral	-2409
▁moved	-2410
▁complic	-2411
▁examples	-2412
cuss	-2413
antly	-2414
itten	-2415
▁vari	-2416
▁quality	-2417
▁teacher	-2418
▁flu	-2419
▁aware	-2420
▁screen	-2421
▁mathemat	-2422
imp	-2423
ugg	-2424
icle	-2425
ners	-2426
rast	-2427
▁tom	-2428
▁wait	-2429
▁biggest	-2430
▁activity	-2431
eth	-2432
itary	-2433
ey	-2434
▁vac	-2435
▁introd	-2436
apan	-2437
ring	-2438
▁cris	-2439
▁carry	-2440
▁ready	-2441
▁likely	-2442
ext	-2443
▁remark	-2444
▁consider	-2445
▁grew	-2446
▁earli	-2447
verty	-2448
▁doctor	-2449
uit	-2450
here	-2451
▁sequ	-2452
▁japan	-2453
▁return	-2454
▁connected	-2455
▁fix	-2456
▁cook	-2457
▁phen	-2458
osphere	-2459
▁poverty	-2460
▁collabor	-2461
▁international	-2462
▁mob	-2463
rible	-2464
▁jobs	-2465
ground	-2466
▁sleep	-2467
▁somehow	-2468
▁walking	-2469
▁continue	-2470
▁perspect	-2471
▁x	-2472
ram	-2473
▁door	-2474
ressed	-2475
▁movie	-2476
▁separ	-2477
▁store	-2478
▁appear	-2479
▁imposs	-2480
▁threat	-2481
▁transl	-2482
▁creative	-2483
▁labor	-2484
▁improve	-2485
▁products	-2486
▁watching	-2487
▁extremely	-2488
ops	-2489
erve	-2490
▁pan	-2491
▁push	-2492
▁disapp	-2493
▁eventually	-2494
gth	-2495
iger	-2496
▁conc	-2497
▁diag	-2498
▁fill	-2499
▁magn	-2500
▁mars	-2501
▁mine	-2502
isions	-2503
▁apart	-2504
▁check	-2505
▁brains	-2506
▁plants	-2507
▁african	-2508
▁context	-2509
▁electricity	-2510
▁heav	-2511
▁king	-2512
▁wild	-2513
▁results	-2514
▁supposed	-2515
rial	-2516
▁fem	-2517
▁cause	-2518
▁extraordinary	-2519
▁activ	-2520
▁influ	-2521
▁account	-2522
▁medicine	-2523
iction	-2524
▁above	-2525
▁david	-2526
▁galax	-2527
▁named	-2528
▁prote	-2529
▁trees	-2530
▁largest	-2531
▁somewhere	-2532
▁essentially	-2533
more	-2534
▁mir	-2535
▁meant	-2536
▁explore	-2537
▁buildings	-2538
▁impossible	-2539
mend	-2540
▁ang	-2541
▁lose	-2542
▁meth	-2543
▁older	-2544
▁immedi	-2545
▁conflict	-2546
▁phenomen	-2547
come	-2548
▁burn	-2549
▁gold	-2550
▁series	-2551
▁usually	-2552
rep	-2553
son	-2554
▁90	-2555
▁deb	-2556
▁los	-2557
▁repl	-2558
▁zero	-2559
▁individuals	-2560
▁cit	-2561
oming	-2562
▁higher	-2563
▁larger	-2564
▁objects	-2565
50	-2566
aur	-2567
etry	-2568
▁ann	-2569
▁cat	-2570
▁mis	-2571
▁san	-2572
▁bank	-2573
estern	-2574
▁author	-2575
▁camera	-2576
▁traditional	-2577
▁clin	-2578
▁coun	-2579
▁goal	-2580
▁luck	-2581
others	-2582
▁adult	-2583
▁magic	-2584
▁talks	-2585
▁studies	-2586
▁thousand	-2587
inct	-2588
▁code	-2589
▁muse	-2590
▁page	-2591
▁role	-2592
▁webs	-2593
▁blind	-2594
▁detect	-2595
▁points	-2596
▁temper	-2597
▁represent	-2598
ustr	-2599
▁print	-2600
▁spect	-2601
▁forest	-2602
▁finding	-2603
▁strange	-2604
do	-2605
▁den	-2606
▁freed	-2607
▁glass	-2608
▁policy	-2609
▁secret	-2610
▁organization	-2611
akes	-2612
emic	-2613
▁clim	-2614
▁ended	-2615
▁minds	-2616
▁sorts	-2617
▁accept	-2618
▁calcul	-2619
▁taught	-2620
▁favorite	-2621
▁architecture	-2622
ann	-2623
▁ban	-2624
▁ben	-2625
cient	-2626
ctors	-2627
▁fing	-2628
▁mist	-2629
▁rece	-2630
▁source	-2631
▁biology	-2632
▁signific	-2633
oud	-2634
rage	-2635
▁bou	-2636
▁pack	-2637
▁beauty	-2638
▁allowed	-2639
▁continu	-2640
▁president	-2641
▁complicated	-2642
ims	-2643
▁crazy	-2644
▁forms	-2645
▁crisis	-2646
▁models	-2647
▁museum	-2648
▁surger	-2649
▁fundamental	-2650
bb	-2651
dom	-2652
put	-2653
▁14	-2654
idge	-2655
ster	-2656
▁dad	-2657
▁whe	-2658
▁fasc	-2659
▁fine	-2660
▁lands	-2661
▁shown	-2662
▁christ	-2663
▁discuss	-2664
▁bacteria	-2665
▁training	-2666
▁therefore	-2667
fer	-2668
nces	-2669
odies	-2670
▁enjo	-2671
▁site	-2672
▁tree	-2673
▁wife	-2674
▁drugs	-2675
▁truly	-2676
▁distrib	-2677
▁particip	-2678
▁ultimate	-2679
▁conditions	-2680
cape	-2681
▁hop	-2682
▁citiz	-2683
▁molec	-2684
▁stars	-2685
▁including	-2686
▁treatment	-2687
ires	-2688
▁198	-2689
▁bom	-2690
▁sus	-2691
▁swe	-2692
▁infect	-2693
▁region	-2694
▁families	-2695
▁ger	-2696
▁jump	-2697
▁assum	-2698
▁written	-2699
▁fantastic	-2700
nal	-2701
rel	-2702
▁town	-2703
▁waste	-2704
▁thanks	-2705
▁central	-2706
▁reading	-2707
▁painting	-2708
▁communities	-2709
isms	-2710
onse	-2711
▁pal	-2712
▁late	-2713
▁minute	-2714
▁western	-2715
▁position	-2716
ama	-2717
oles	-2718
▁upon	-2719
▁worse	-2720
▁killed	-2721
amm	-2722
ped	-2723
▁jud	-2724
atory	-2725
ining	-2726
▁enorm	-2727
▁himself	-2728
▁neighbor	-2729
▁perspective	-2730
lex	-2731
▁kil	-2732
▁cele	-2733
▁bunch	-2734
ologist	-2735
▁faster	-2736
▁excited	-2737
▁respect	-2738
▁version	-2739
▁unfortun	-2740
cise	-2741
▁purp	-2742
vision	-2743
▁genes	-2744
▁content	-2745
▁mention	-2746
▁response	-2747
▁throughout	-2748
fact	-2749
▁dro	-2750
▁tal	-2751
▁cart	-2752
▁trou	-2753
▁trick	-2754
▁celebr	-2755
▁pieces	-2756
▁military	-2757
▁successful	-2758
men	-2759
oke	-2760
▁kept	-2761
▁price	-2762
inating	-2763
▁concer	-2764
▁prison	-2765
▁standing	-2766
▁straight	-2767
▁construct	-2768
▁expensive	-2769
rad	-2770
▁log	-2771
inated	-2772
▁alive	-2773
▁finan	-2774
▁remind	-2775
▁increasing	-2776
▁surprising	-2777
rum	-2778
ube	-2779
phone	-2780
▁innov	-2781
▁afford	-2782
▁mental	-2783
▁strateg	-2784
tend	-2785
▁rap	-2786
▁rand	-2787
▁ther	-2788
▁choose	-2789
izations	-2790
▁humanity	-2791
sect	-2792
ured	-2793
▁alth	-2794
▁hero	-2795
▁trade	-2796
▁launch	-2797
▁physics	-2798
sequ	-2799
▁hey	-2800
▁oxy	-2801
eties	-2802
▁fort	-2803
▁hall	-2804
▁neurons	-2805
▁smaller	-2806
▁although	-2807
▁familiar	-2808
urt	-2809
ches	-2810
ffic	-2811
▁electr	-2812
▁earlier	-2813
▁freedom	-2814
iti	-2815
▁sad	-2816
▁beings	-2817
▁daught	-2818
▁skills	-2819
▁service	-2820
▁decision	-2821
▁recognize	-2822
ulf	-2823
amic	-2824
▁dog	-2825
▁cover	-2826
▁liber	-2827
▁famous	-2828
▁spirit	-2829
▁healthy	-2830
▁patterns	-2831
▁cold	-2832
▁roll	-2833
▁allows	-2834
▁publish	-2835
▁environmental	-2836
egr	-2837
iet	-2838
▁thr	-2839
ulate	-2840
▁afgh	-2841
▁occur	-2842
▁worry	-2843
▁contrib	-2844
▁plastic	-2845
sc	-2846
zz	-2847
lly	-2848
soci	-2849
▁rise	-2850
▁demon	-2851
▁optim	-2852
▁effort	-2853
▁genetic	-2854
▁dar	-2855
▁blog	-2856
▁fuel	-2857
▁uses	-2858
istics	-2859
▁cases	-2860
▁lower	-2861
▁anywhere	-2862
ables	-2863
▁costs	-2864
▁lines	-2865
▁actual	-2866
▁invent	-2867
▁rights	-2868
▁clearly	-2869
▁colleag	-2870
▁listening	-2871
▁solutions	-2872
ana	-2873
rene	-2874
▁drop	-2875
▁prep	-2876
▁rule	-2877
ission	-2878
▁unique	-2879
▁machines	-2880
▁tit	-2881
thern	-2882
▁multip	-2883
▁greater	-2884
▁violence	-2885
ob	-2886
▁13	-2887
▁doc	-2888
▁dyn	-2889
itude	-2890
▁throw	-2891
▁comfort	-2892
▁however	-2893
▁waiting	-2894
▁production	-2895
▁et	-2896
▁tv	-2897
apes	-2898
back	-2899
▁ten	-2900
▁desp	-2901
▁shot	-2902
▁forget	-2903
▁values	-2904
▁seconds	-2905
▁decisions	-2906
oon	-2907
cies	-2908
onom	-2909
rect	-2910
▁sor	-2911
▁urban	-2912
▁afghan	-2913
▁employ	-2914
▁achieve	-2915
▁driving	-2916
▁increase	-2917
▁americans	-2918
iles	-2919
▁term	-2920
▁tiss	-2921
▁board	-2922
▁describ	-2923
▁critical	-2924
▁intelligence	-2925
mb	-2926
▁aid	-2927
▁card	-2928
▁determ	-2929
iversity	-2930
▁provide	-2931
▁demonstr	-2932
▁invented	-2933
▁dangerous	-2934
ays	-2935
for	-2936
anda	-2937
▁cry	-2938
▁mid	-2939
▁pig	-2940
▁tun	-2941
▁descri	-2942
▁engage	-2943
▁manage	-2944
▁philos	-2945
▁anymore	-2946
uted	-2947
iling	-2948
▁iran	-2949
▁autom	-2950
ologists	-2951
▁teaching	-2952
▁conversation	-2953
let	-2954
eless	-2955
▁hell	-2956
▁broad	-2957
▁income	-2958
▁robots	-2959
ently	-2960
▁yell	-2961
itation	-2962
▁associ	-2963
▁address	-2964
▁surgery	-2965
▁becoming	-2966
▁electron	-2967
▁greatest	-2968
▁religion	-2969
▁conference	-2970
ps	-2971
bol	-2972
iven	-2973
time	-2974
▁ara	-2975
▁atm	-2976
▁lat	-2977
▁veh	-2978
ained	-2979
ounds	-2980
▁anal	-2981
▁legs	-2982
▁artist	-2983
▁politics	-2984
unk	-2985
▁drink	-2986
▁walked	-2987
▁weight	-2988
ndon	-2989
resh	-2990
▁raise	-2991
▁whose	-2992
▁nation	-2993
atically	-2994
▁massive	-2995
▁immediately	-2996
eters	-2997
▁floor	-2998
▁services	-2999
▁interview	-3000
cr	-3001
▁bang	-3002
▁gene	-3003
▁none	-3004
▁match	-3005
▁shark	-3006
▁weren	-3007
▁babies	-3008
▁decade	-3009
▁flying	-3010
▁saving	-3011
▁slight	-3012
▁express	-3013
▁private	-3014
▁remarkable	-3015
▁ine	-3016
▁mut	-3017
▁ord	-3018
▁vict	-3019
ricult	-3020
▁dance	-3021
▁depend	-3022
▁agricult	-3023
ales	-3024
iced	-3025
uced	-3026
▁tum	-3027
acity	-3028
▁forth	-3029
▁types	-3030
reprene	-3031
▁consequ	-3032
▁website	-3033
▁societies	-3034
oid	-3035
▁21	-3036
rees	-3037
▁alg	-3038
▁lau	-3039
▁ver	-3040
▁hair	-3041
▁hole	-3042
▁wood	-3043
▁integr	-3044
▁physic	-3045
▁direction	-3046
▁connection	-3047
▁television	-3048
▁unfortunately	-3049
uss	-3050
▁fra	-3051
▁ken	-3052
epend	-3053
▁fold	-3054
▁enjoy	-3055
▁dimens	-3056
▁useful	-3057
▁doctors	-3058
▁creativity	-3059
▁engineering	-3060
▁nut	-3061
antic	-3062
▁laws	-3063
▁quot	-3064
▁range	-3065
▁slide	-3066
▁bodies	-3067
▁journal	-3068
▁cultural	-3069
▁enormous	-3070
▁practice	-3071
▁industrial	-3072
▁institutions	-3073
ffe	-3074
rael	-3075
▁201	-3076
▁ran	-3077
▁tor	-3078
▁chair	-3079
▁entreprene	-3080
▁je	-3081
rest	-3082
aging	-3083
▁block	-3084
▁indian	-3085
▁shared	-3086
▁independ	-3087
bel	-3088
yle	-3089
▁fit	-3090
▁moon	-3091
▁final	-3092
▁motiv	-3093
▁commer	-3094
▁networks	-3095
wood	-3096
attle	-3097
▁scan	-3098
▁survive	-3099
▁various	-3100
▁specific	-3101
▁swim	-3102
▁loved	-3103
▁directly	-3104
▁condition	-3105
▁following	-3106
▁temperature	-3107
gu	-3108
oty	-3109
the	-3110
win	-3111
ancy	-3112
▁hyd	-3113
▁copy	-3114
▁career	-3115
▁micros	-3116
▁terror	-3117
▁relative	-3118
▁speaking	-3119
▁financial	-3120
▁transport	-3121
▁understood	-3122
ha	-3123
iqu	-3124
orrow	-3125
▁aust	-3126
▁base	-3127
▁helped	-3128
▁london	-3129
▁popular	-3130
▁experiments	-3131
▁governments	-3132
▁consciousness	-3133
ening	-3134
▁crow	-3135
▁weap	-3136
▁apply	-3137
▁birds	-3138
▁mostly	-3139
▁meeting	-3140
▁profound	-3141
ee	-3142
▁500	-3143
aries	-3144
▁heat	-3145
▁radi	-3146
▁displ	-3147
▁funny	-3148
▁radio	-3149
▁destro	-3150
▁strugg	-3151
▁summer	-3152
▁evolved	-3153
▁tremend	-3154
▁citizens	-3155
bert	-3156
ceed	-3157
board	-3158
▁task	-3159
▁ahead	-3160
▁frank	-3161
▁quant	-3162
▁insect	-3163
▁israel	-3164
▁method	-3165
▁willing	-3166
▁standard	-3167
▁ut	-3168
ball	-3169
▁boys	-3170
▁wealth	-3171
rastruct	-3172
▁infrastruct	-3173
aign	-3174
ript	-3175
ufact	-3176
ration	-3177
▁airpl	-3178
▁below	-3179
▁catch	-3180
▁desert	-3181
▁island	-3182
▁levels	-3183
▁random	-3184
▁effects	-3185
▁purpose	-3186
▁original	-3187
▁possibly	-3188
ils	-3189
▁24	-3190
▁mr	-3191
▁fat	-3192
▁cust	-3193
▁harv	-3194
ashion	-3195
▁flight	-3196
▁forces	-3197
▁german	-3198
▁inspir	-3199
▁police	-3200
▁ancient	-3201
▁prevent	-3202
▁campaign	-3203
▁performance	-3204
▁mos	-3205
aling	-3206
▁hous	-3207
▁coast	-3208
▁belief	-3209
▁effective	-3210
▁tur	-3211
ception	-3212
▁bought	-3213
▁histor	-3214
▁manufact	-3215
▁produced	-3216
▁challenges	-3217
pro	-3218
rew	-3219
▁300	-3220
▁appl	-3221
▁compon	-3222
▁honest	-3223
▁washing	-3224
▁terrible	-3225
▁biological	-3226
hib	-3227
▁wire	-3228
▁sorry	-3229
▁democr	-3230
▁genome	-3231
▁metaph	-3232
▁bringing	-3233
▁inspired	-3234
▁spending	-3235
▁surround	-3236
▁complexity	-3237
▁afghanistan	-3238
itor	-3239
▁vul	-3240
cules	-3241
▁pros	-3242
▁twice	-3243
▁emotional	-3244
osy	-3245
ray	-3246
empt	-3247
▁ira	-3248
right	-3249
▁mich	-3250
▁pleas	-3251
▁rough	-3252
▁smell	-3253
▁causes	-3254
▁decide	-3255
▁expand	-3256
▁artists	-3257
▁scientist	-3258
ley	-3259
pped	-3260
▁etc	-3261
iding	-3262
atives	-3263
▁brill	-3264
▁coffe	-3265
▁parad	-3266
▁closer	-3267
ervation	-3268
▁attract	-3269
▁instance	-3270
▁aids	-3271
▁chris	-3272
▁climb	-3273
▁dinos	-3274
▁symbol	-3275
▁focused	-3276
▁sharing	-3277
▁controll	-3278
▁diseases	-3279
▁atmosphere	-3280
▁communication	-3281
▁gh	-3282
cope	-3283
▁ske	-3284
iforn	-3285
▁oppos	-3286
▁shock	-3287
▁coffee	-3288
▁memory	-3289
▁californ	-3290
▁capacity	-3291
▁designers	-3292
▁sustainable	-3293
ams	-3294
wise	-3295
▁mad	-3296
▁wis	-3297
▁wide	-3298
▁frame	-3299
▁offic	-3300
▁active	-3301
▁supply	-3302
▁vulner	-3303
▁markets	-3304
▁trouble	-3305
anc	-3306
orge	-3307
ping	-3308
thes	-3309
inate	-3310
▁doub	-3311
▁gradu	-3312
▁oxygen	-3313
▁played	-3314
▁switch	-3315
▁decades	-3316
▁mountain	-3317
▁molecules	-3318
ky	-3319
cell	-3320
oper	-3321
▁mix	-3322
ement	-3323
▁arab	-3324
▁gard	-3325
▁loss	-3326
▁diagn	-3327
▁breast	-3328
▁mobile	-3329
ste	-3330
ises	-3331
izes	-3332
▁fro	-3333
▁gar	-3334
▁ign	-3335
water	-3336
▁total	-3337
▁broken	-3338
▁california	-3339
▁infrastructure	-3340
ike	-3341
▁rh	-3342
used	-3343
▁rom	-3344
itted	-3345
▁beat	-3346
▁mamm	-3347
▁plat	-3348
▁yellow	-3349
▁devices	-3350
▁pressure	-3351
rench	-3352
▁iraq	-3353
▁mexic	-3354
▁eating	-3355
▁reflect	-3356
▁daughter	-3357
▁classroom	-3358
iers	-3359
▁tax	-3360
▁lack	-3361
▁bread	-3362
▁calls	-3363
▁river	-3364
▁10,000	-3365
▁degrees	-3366
▁deliver	-3367
▁princip	-3368
▁workers	-3369
▁hus	-3370
arian	-3371
▁reco	-3372
▁worst	-3373
▁custom	-3374
▁window	-3375
▁slightly	-3376
▁tremendous	-3377
▁differences	-3378
ami	-3379
key	-3380
val	-3381
cked	-3382
ened	-3383
iest	-3384
outh	-3385
anced	-3386
▁gent	-3387
▁reve	-3388
▁vacc	-3389
▁lights	-3390
▁photos	-3391
▁hearing	-3392
▁mission	-3393
fl	-3394
▁terr	-3395
thetic	-3396
uction	-3397
▁creates	-3398
lications	-3399
aff	-3400
istry	-3401
▁dram	-3402
▁shop	-3403
▁surve	-3404
osystem	-3405
▁gotten	-3406
▁highly	-3407
▁foreign	-3408
▁nations	-3409
▁noticed	-3410
▁programs	-3411
ios	-3412
icles	-3413
▁mort	-3414
▁paid	-3415
▁race	-3416
▁sick	-3417
▁trip	-3418
▁agree	-3419
▁email	-3420
▁niger	-3421
▁party	-3422
▁corner	-3423
▁ecosystem	-3424
▁published	-3425
arm	-3426
▁acad	-3427
▁teen	-3428
▁tens	-3429
▁photo	-3430
▁tissue	-3431
▁richard	-3432
▁studying	-3433
ya	-3434
load	-3435
▁scul	-3436
▁vast	-3437
▁chick	-3438
▁dying	-3439
▁seemed	-3440
▁answers	-3441
▁partners	-3442
▁significant	-3443
▁responsibility	-3444
oting	-3445
▁band	-3446
▁rare	-3447
▁spee	-3448
▁basis	-3449
▁corru	-3450
▁feels	-3451
▁laugh	-3452
▁visit	-3453
▁notion	-3454
▁fashion	-3455
▁argument	-3456
▁philosoph	-3457
▁commercial	-3458
▁communicate	-3459
ec	-3460
ef	-3461
und	-3462
olve	-3463
apped	-3464
▁hang	-3465
▁seas	-3466
▁giant	-3467
▁cooper	-3468
▁unlike	-3469
▁colleagues	-3470
ada	-3471
wor	-3472
aced	-3473
ores	-3474
term	-3475
▁rot	-3476
▁cogn	-3477
▁paul	-3478
▁tast	-3479
▁cheap	-3480
▁accord	-3481
▁helping	-3482
▁members	-3483
▁planets	-3484
▁brilliant	-3485
▁phenomenon	-3486
▁organizations	-3487
kn	-3488
▁pet	-3489
▁unc	-3490
▁altern	-3491
▁nearly	-3492
▁austral	-3493
▁restaur	-3494
▁diversity	-3495
▁neighborhood	-3496
fr	-3497
mit	-3498
▁cla	-3499
▁dri	-3500
▁gun	-3501
▁joy	-3502
▁sam	-3503
▁scr	-3504
othes	-3505
▁enter	-3506
▁magaz	-3507
▁reduce	-3508
▁addition	-3509
▁benefits	-3510
▁efficient	-3511
▁cru	-3512
▁mit	-3513
▁que	-3514
aining	-3515
▁fellow	-3516
▁gentle	-3517
▁microb	-3518
▁sculpt	-3519
▁religious	-3520
▁relationships	-3521
met	-3522
otic	-3523
▁dol	-3524
order	-3525
▁newsp	-3526
connect	-3527
▁easily	-3528
▁choices	-3529
▁knowing	-3530
▁respond	-3531
▁traffic	-3532
▁particles	-3533
band	-3534
based	-3535
idden	-3536
▁russ	-3537
▁novel	-3538
▁surge	-3539
▁volunt	-3540
▁attempt	-3541
▁balance	-3542
▁conduct	-3543
▁despite	-3544
▁missing	-3545
vit	-3546
cest	-3547
uing	-3548
▁400	-3549
▁fab	-3550
▁lin	-3551
orith	-3552
rogen	-3553
ulous	-3554
▁join	-3555
▁narr	-3556
▁stem	-3557
▁fully	-3558
▁prize	-3559
▁shift	-3560
▁charge	-3561
▁stopped	-3562
▁turning	-3563
▁algorith	-3564
▁landscape	-3565
▁foundation	-3566
▁imagination	-3567
hand	-3568
▁ble	-3569
▁mas	-3570
arter	-3571
▁musl	-3572
▁tour	-3573
dimens	-3574
▁fairly	-3575
▁passed	-3576
▁contact	-3577
▁metaphor	-3578
▁differently	-3579
▁necessarily	-3580
ued	-3581
▁ju	-3582
edia	-3583
▁fed	-3584
▁pow	-3585
▁libr	-3586
▁brand	-3587
▁noise	-3588
▁ancest	-3589
▁emotion	-3590
▁farmers	-3591
ification	-3592
▁negative	-3593
▁previous	-3594
▁ultimately	-3595
▁possibility	-3596
▁opportunities	-3597
reci	-3598
▁alt	-3599
▁reb	-3600
▁asia	-3601
▁analy	-3602
▁mouth	-3603
▁aspect	-3604
▁batter	-3605
▁bridge	-3606
▁brings	-3607
▁double	-3608
▁female	-3609
▁french	-3610
▁resist	-3611
▁spaces	-3612
▁figured	-3613
zen	-3614
▁ug	-3615
vity	-3616
▁nan	-3617
▁cand	-3618
▁edge	-3619
▁forg	-3620
▁harm	-3621
▁note	-3622
icking	-3623
▁1,000	-3624
▁accom	-3625
▁brother	-3626
▁insight	-3627
▁definition	-3628
af	-3629
ees	-3630
▁1.	-3631
aria	-3632
▁tow	-3633
0,000	-3634
house	-3635
itely	-3636
▁iron	-3637
▁frequ	-3638
▁tough	-3639
▁dollar	-3640
▁element	-3641
▁moments	-3642
▁virtual	-3643
▁hopefully	-3644
▁professor	-3645
mark	-3646
▁amb	-3647
▁adapt	-3648
▁faces	-3649
▁helps	-3650
▁leads	-3651
▁lucky	-3652
▁stren	-3653
▁facebook	-3654
▁intellect	-3655
dimensional	-3656
▁background	-3657
▁structures	-3658
ett	-3659
off	-3660
aped	-3661
ties	-3662
▁inj	-3663
▁org	-3664
▁boat	-3665
▁lapt	-3666
▁stri	-3667
▁invis	-3668
▁motor	-3669
▁paint	-3670
▁related	-3671
▁designer	-3672
▁elements	-3673
▁influence	-3674
cop	-3675
print	-3676
stein	-3677
▁adop	-3678
▁puzz	-3679
▁grass	-3680
▁rapid	-3681
▁wheel	-3682
▁lesson	-3683
▁speech	-3684
▁concent	-3685
▁forever	-3686
▁emotions	-3687
▁engineers	-3688
▁suffering	-3689
head	-3690
▁jew	-3691
▁chur	-3692
▁foss	-3693
▁legal	-3694
▁walls	-3695
▁consid	-3696
▁grandm	-3697
▁shares	-3698
▁british	-3699
▁correct	-3700
▁destroy	-3701
▁streets	-3702
▁fighting	-3703
▁strength	-3704
▁competition	-3705
▁mathematics	-3706
▁ax	-3707
verse	-3708
▁epid	-3709
▁gall	-3710
▁host	-3711
apping	-3712
orders	-3713
▁cloud	-3714
▁truck	-3715
▁target	-3716
▁benefit	-3717
▁according	-3718
▁organisms	-3719
▁professional	-3720
tle	-3721
▁row	-3722
▁bomb	-3723
▁shel	-3724
ifying	-3725
▁bound	-3726
▁crash	-3727
lection	-3728
▁easier	-3729
▁sister	-3730
▁slowly	-3731
▁wisdom	-3732
▁install	-3733
▁billions	-3734
▁creatures	-3735
▁fascinating	-3736
uary	-3737
wide	-3738
▁hyp	-3739
eared	-3740
▁exch	-3741
▁accur	-3742
▁brown	-3743
▁fresh	-3744
▁begins	-3745
▁finger	-3746
▁appreci	-3747
▁leading	-3748
▁identity	-3749
raid	-3750
roud	-3751
▁fol	-3752
throp	-3753
▁astr	-3754
▁cred	-3755
▁chann	-3756
▁diver	-3757
▁offer	-3758
▁pengu	-3759
▁quote	-3760
▁afraid	-3761
▁bright	-3762
▁sector	-3763
ographic	-3764
▁justice	-3765
▁matters	-3766
▁regular	-3767
▁creation	-3768
▁necessary	-3769
▁seriously	-3770
ears	-3771
▁bon	-3772
▁mur	-3773
▁drag	-3774
▁meat	-3775
antage	-3776
ulated	-3777
▁dolph	-3778
▁mouse	-3779
▁weird	-3780
ography	-3781
▁colors	-3782
▁events	-3783
▁fields	-3784
▁cognitive	-3785
raft	-3786
ysis	-3787
ander	-3788
apers	-3789
iable	-3790
▁intu	-3791
▁repe	-3792
atures	-3793
▁habit	-3794
▁maint	-3795
▁demand	-3796
▁raised	-3797
▁therap	-3798
▁discovery	-3799
▁statistics	-3800
▁agriculture	-3801
▁importantly	-3802
ara	-3803
iber	-3804
▁cos	-3805
▁hun	-3806
▁mer	-3807
oking	-3808
▁defe	-3809
▁purs	-3810
▁lunch	-3811
▁uncle	-3812
▁adults	-3813
▁corpor	-3814
▁darwin	-3815
▁holding	-3816
▁typical	-3817
▁entirely	-3818
▁platform	-3819
▁childhood	-3820
▁experiences	-3821
▁civilization	-3822
edd	-3823
apse	-3824
cket	-3825
cles	-3826
▁tri	-3827
celer	-3828
inist	-3829
▁bird	-3830
▁male	-3831
▁seed	-3832
idents	-3833
▁embra	-3834
▁kilom	-3835
▁moves	-3836
▁interp	-3837
▁remote	-3838
ifically	-3839
▁counter	-3840
▁organic	-3841
▁shouldn	-3842
ibilities	-3843
▁describe	-3844
▁everyday	-3845
▁investment	-3846
▁responsible	-3847
ius	-3848
osh	-3849
▁zo	-3850
▁shr	-3851
▁spl	-3852
▁vent	-3853
▁chimp	-3854
▁prior	-3855
▁proud	-3856
▁caught	-3857
▁circle	-3858
▁deeply	-3859
▁finished	-3860
▁opposite	-3861
▁principles	-3862
eg	-3863
fo	-3864
set	-3865
ypt	-3866
athy	-3867
isco	-3868
▁und	-3869
▁wow	-3870
▁core	-3871
▁flat	-3872
▁hate	-3873
▁ship	-3874
icians	-3875
▁argue	-3876
▁avoid	-3877
▁subst	-3878
▁degree	-3879
▁galaxy	-3880
▁meters	-3881
▁leaving	-3882
▁replace	-3883
▁studied	-3884
▁economics	-3885
▁languages	-3886
▁otherwise	-3887
▁perfectly	-3888
▁institution	-3889
asa	-3890
▁1,	-3891
▁bul	-3892
atell	-3893
▁master	-3894
▁transp	-3895
▁accident	-3896
▁normally	-3897
▁operating	-3898
ager	-3899
aker	-3900
eral	-3901
illed	-3902
▁roof	-3903
▁rout	-3904
▁soph	-3905
▁franc	-3906
▁infin	-3907
▁stuck	-3908
▁church	-3909
▁convin	-3910
▁fourth	-3911
▁artific	-3912
▁capable	-3913
▁insects	-3914
▁require	-3915
▁airplane	-3916
▁engineer	-3917
▁molecule	-3918
▁invisible	-3919
▁constantly	-3920
▁depression	-3921
reg	-3922
ctic	-3923
▁mel	-3924
itter	-3925
▁seat	-3926
▁spot	-3927
▁click	-3928
▁egypt	-3929
▁faith	-3930
ruction	-3931
▁satell	-3932
▁article	-3933
▁station	-3934
▁theater	-3935
▁distance	-3936
▁magazine	-3937
▁sequence	-3938
▁washington	-3939
cil	-3940
zil	-3941
▁wik	-3942
▁chap	-3943
▁diet	-3944
▁held	-3945
urally	-3946
▁round	-3947
oration	-3948
▁depart	-3949
▁desire	-3950
▁dreams	-3951
▁fortun	-3952
▁incent	-3953
▁opened	-3954
▁yester	-3955
ulations	-3956
▁compare	-3957
▁prototy	-3958
▁separate	-3959
▁principle	-3960
irt	-3961
airs	-3962
anes	-3963
olds	-3964
roll	-3965
vere	-3966
▁tag	-3967
▁bear	-3968
▁cosm	-3969
▁disp	-3970
▁soil	-3971
▁vall	-3972
▁brief	-3973
▁indic	-3974
▁steps	-3975
▁brazil	-3976
▁damage	-3977
▁mexico	-3978
▁oceans	-3979
▁toward	-3980
▁acceler	-3981
▁trained	-3982
▁believed	-3983
▁survival	-3984
▁consumption	-3985
iat	-3986
oses	-3987
▁dry	-3988
▁ton	-3989
craft	-3990
ropri	-3991
▁intr	-3992
▁opin	-3993
uments	-3994
▁crowd	-3995
▁simpl	-3996
▁tumor	-3997
▁commit	-3998
▁expert	-3999
▁hidden	-4000
▁letter	-4001
▁thinks	-4002
▁equival	-4003
▁husband	-4004
▁tomorrow	-4005
▁mc	-4006
vant	-4007
▁bag	-4008
▁fle	-4009
gment	-4010
▁bone	-4011
▁evil	-4012
▁whom	-4013
▁pages	-4014
issions	-4015
▁breath	-4016
▁dinner	-4017
▁factory	-4018
▁protein	-4019
▁whenever	-4020
▁yesterday	-4021
▁independent	-4022
la	-4023
uls	-4024
ume	-4025
aked	-4026
▁van	-4027
▁arms	-4028
▁coal	-4029
▁trib	-4030
▁grown	-4031
▁rural	-4032
entally	-4033
▁origin	-4034
▁unless	-4035
▁illness	-4036
▁mothers	-4037
▁volunte	-4038
▁weather	-4039
▁multiple	-4040
▁resource	-4041
▁concerned	-4042
▁institute	-4043
col	-4044
ogen	-4045
▁era	-4046
▁fis	-4047
erson	-4048
ortex	-4049
▁empt	-4050
▁exer	-4051
▁tail	-4052
▁wear	-4053
▁beach	-4054
▁crime	-4055
▁plane	-4056
▁quiet	-4057
▁sport	-4058
▁reward	-4059
▁signal	-4060
▁charles	-4061
▁failure	-4062
▁precise	-4063
▁warming	-4064
▁compared	-4065
▁followed	-4066
▁currently	-4067
▁electrical	-4068
▁intelligent	-4069
▁interaction	-4070
▁increasingly	-4071
enty	-4072
roph	-4073
▁bow	-4074
▁anti	-4075
ensity	-4076
▁apple	-4077
▁equal	-4078
▁teles	-4079
▁circum	-4080
▁highest	-4081
▁managed	-4082
▁weapons	-4083
▁wearing	-4084
▁investig	-4085
▁ordinary	-4086
▁businesses	-4087
▁dimensions	-4088
ael	-4089
▁35	-4090
▁saf	-4091
▁sen	-4092
agers	-4093
point	-4094
▁bush	-4095
▁islam	-4096
▁attach	-4097
▁caused	-4098
▁muscle	-4099
▁succeed	-4100
▁worried	-4101
▁contract	-4102
▁majority	-4103
emy	-4104
mon	-4105
care	-4106
fish	-4107
rate	-4108
▁shut	-4109
▁stim	-4110
▁cycle	-4111
▁exhib	-4112
▁battle	-4113
▁garden	-4114
▁obsess	-4115
▁pounds	-4116
▁profit	-4117
▁document	-4118
▁european	-4119
▁surprise	-4120
▁continent	-4121
▁worldwide	-4122
▁collective	-4123
pid	-4124
▁od	-4125
▁mig	-4126
cking	-4127
erves	-4128
known	-4129
▁liqu	-4130
▁load	-4131
▁puts	-4132
▁heavy	-4133
▁holes	-4134
▁debate	-4135
▁exists	-4136
▁failed	-4137
▁harder	-4138
▁inform	-4139
▁sexual	-4140
▁shapes	-4141
▁spring	-4142
▁versus	-4143
▁voices	-4144
▁suppose	-4145
▁galaxies	-4146
▁designing	-4147
▁universal	-4148
lin	-4149
iors	-4150
▁pil	-4151
▁fell	-4152
▁kore	-4153
▁hyper	-4154
▁100,000	-4155
▁drawing	-4156
▁experts	-4157
▁limited	-4158
▁malaria	-4159
▁vehicle	-4160
▁pleasure	-4161
▁advantage	-4162
▁artificial	-4163
▁transition	-4164
▁consequences	-4165
▁transformation	-4166
cipl	-4167
▁pip	-4168
▁ange	-4169
▁arts	-4170
▁thom	-4171
▁tick	-4172
▁grain	-4173
▁recon	-4174
▁shall	-4175
▁explan	-4176
▁motion	-4177
▁britain	-4178
▁illustr	-4179
▁invited	-4180
▁corruption	-4181
▁equivalent	-4182
▁generations	-4183
▁intellectual	-4184
au	-4185
hab	-4186
aurs	-4187
▁fif	-4188
▁len	-4189
essel	-4190
▁ants	-4191
▁bits	-4192
▁lawy	-4193
▁pian	-4194
▁rein	-4195
encies	-4196
▁aging	-4197
▁marri	-4198
▁names	-4199
▁closed	-4200
▁fossil	-4201
▁losing	-4202
▁review	-4203
▁curious	-4204
▁extract	-4205
▁emerging	-4206
▁described	-4207
▁entertain	-4208
▁essential	-4209
▁leadership	-4210
▁grandmother	-4211
yl	-4212
car	-4213
ked	-4214
▁dip	-4215
▁due	-4216
▁mat	-4217
▁pac	-4218
osing	-4219
▁abst	-4220
▁lift	-4221
▁nerv	-4222
▁warm	-4223
▁grade	-4224
▁heads	-4225
▁horse	-4226
▁negot	-4227
▁perce	-4228
▁veget	-4229
▁leader	-4230
▁treated	-4231
▁planning	-4232
▁strategy	-4233
▁mentioned	-4234
▁distribution	-4235
hi	-4236
ham	-4237
mar	-4238
pet	-4239
acle	-4240
oted	-4241
anted	-4242
uries	-4243
▁bees	-4244
▁grid	-4245
▁hasn	-4246
▁spin	-4247
▁wave	-4248
▁2,000	-4249
▁shoes	-4250
▁leaves	-4251
▁paying	-4252
▁replic	-4253
▁select	-4254
▁dynamic	-4255
▁signals	-4256
▁feedback	-4257
▁japanese	-4258
▁entrepreneurs	-4259
ae	-4260
dy	-4261
ns	-4262
ta	-4263
rupt	-4264
▁cow	-4265
▁ein	-4266
▁army	-4267
▁pump	-4268
▁valu	-4269
▁inner	-4270
▁sites	-4271
▁george	-4272
▁stupid	-4273
▁vessel	-4274
▁michael	-4275
▁radical	-4276
▁roughly	-4277
▁viruses	-4278
▁feelings	-4279
▁australia	-4280
▁dinosaurs	-4281
semb	-4282
▁nav	-4283
iency	-4284
▁agre	-4285
▁lady	-4286
▁peak	-4287
▁pray	-4288
▁coral	-4289
▁eleph	-4290
▁lifet	-4291
▁stock	-4292
akistan	-4293
▁phones	-4294
▁reform	-4295
▁details	-4296
▁display	-4297
▁england	-4298
▁library	-4299
▁opening	-4300
▁einstein	-4301
▁northern	-4302
▁surprised	-4303
▁associated	-4304
▁convention	-4305
min	-4306
▁45	-4307
▁150	-4308
▁gap	-4309
▁tex	-4310
▁init	-4311
▁lies	-4312
▁poem	-4313
▁wond	-4314
pected	-4315
▁honor	-4316
▁steel	-4317
▁canada	-4318
▁filled	-4319
▁liquid	-4320
▁negoti	-4321
▁status	-4322
▁valley	-4323
▁letters	-4324
▁abstract	-4325
▁interface	-4326
new	-4327
pan	-4328
▁99	-4329
▁fal	-4330
▁lie	-4331
▁wit	-4332
ublic	-4333
▁kick	-4334
▁recy	-4335
▁suit	-4336
▁layer	-4337
▁teeth	-4338
▁belong	-4339
▁budget	-4340
▁extend	-4341
▁finish	-4342
▁gather	-4343
▁studio	-4344
▁dealing	-4345
▁nervous	-4346
▁soldiers	-4347
▁chemistry	-4348
▁practical	-4349
ino	-4350
bble	-4351
ocol	-4352
asion	-4353
▁blow	-4354
▁disc	-4355
▁myst	-4356
▁orch	-4357
▁shif	-4358
ipment	-4359
▁annou	-4360
▁concl	-4361
▁fract	-4362
▁homes	-4363
▁limit	-4364
▁advert	-4365
▁frustr	-4366
▁neuros	-4367
▁script	-4368
▁stress	-4369
▁covered	-4370
▁killing	-4371
▁lessons	-4372
▁setting	-4373
▁disaster	-4374
▁minister	-4375
▁pakistan	-4376
▁equipment	-4377
▁technical	-4378
ca	-4379
iot	-4380
▁hur	-4381
ipped	-4382
organ	-4383
▁biom	-4384
▁hadn	-4385
▁hung	-4386
▁hunt	-4387
▁wars	-4388
elling	-4389
▁chain	-4390
▁kenya	-4391
▁smile	-4392
▁sugar	-4393
▁movies	-4394
▁keeping	-4395
▁married	-4396
▁affected	-4397
▁congress	-4398
▁chemicals	-4399
▁encourage	-4400
▁mortality	-4401
▁newspaper	-4402
▁researchers	-4403
enn	-4404
lock	-4405
▁rat	-4406
eline	-4407
place	-4408
▁date	-4409
▁dial	-4410
▁myth	-4411
▁daily	-4412
▁kitch	-4413
▁prime	-4414
▁spoke	-4415
mission	-4416
▁chicken	-4417
▁nigeria	-4418
▁whereas	-4419
▁thoughts	-4420
▁producing	-4421
▁importance	-4422
▁kilometers	-4423
▁protection	-4424
▁comfortable	-4425
▁mathematical	-4426
20	-4427
▁ing	-4428
▁mak	-4429
olves	-4430
pping	-4431
▁gang	-4432
▁glam	-4433
▁jack	-4434
▁lect	-4435
▁qual	-4436
▁vote	-4437
ctions	-4438
ension	-4439
▁awful	-4440
▁ideal	-4441
▁stood	-4442
▁organs	-4443
▁trials	-4444
▁arrived	-4445
▁battery	-4446
▁partner	-4447
▁cultures	-4448
▁exchange	-4449
▁sophistic	-4450
▁democratic	-4451
▁department	-4452
▁mathematic	-4453
▁alternative	-4454
▁construction	-4455
etics	-4456
▁tall	-4457
▁unex	-4458
▁categ	-4459
▁empty	-4460
▁saved	-4461
▁stone	-4462
▁sweet	-4463
▁users	-4464
▁deeper	-4465
▁sharks	-4466
▁stream	-4467
▁thomas	-4468
▁launched	-4469
▁mountains	-4470
▁effectively	-4471
ka	-4472
life	-4473
iques	-4474
neath	-4475
ograp	-4476
▁acqu	-4477
▁pure	-4478
▁reef	-4479
▁weak	-4480
▁flies	-4481
▁james	-4482
▁march	-4483
▁rates	-4484
▁patent	-4485
▁sphere	-4486
▁sources	-4487
▁twitter	-4488
▁appropri	-4489
▁consumer	-4490
▁convince	-4491
▁property	-4492
▁spectrum	-4493
▁suggests	-4494
▁molecular	-4495
▁considered	-4496
▁perception	-4497
▁restaurant	-4498
▁underneath	-4499
▁possibilities	-4500
oh	-4501
ox	-4502
lom	-4503
zed	-4504
▁ru	-4505
▁cha	-4506
▁gay	-4507
▁desk	-4508
▁ends	-4509
▁nasa	-4510
▁silk	-4511
acters	-4512
▁folks	-4513
▁manip	-4514
▁pregn	-4515
▁prove	-4516
▁scene	-4517
▁solid	-4518
▁player	-4519
▁advanced	-4520
▁circumst	-4521
▁epidemic	-4522
▁reaction	-4523
▁interpret	-4524
▁organized	-4525
▁characters	-4526
▁expression	-4527
▁management	-4528
▁evolutionary	-4529
▁specifically	-4530
igm	-4531
oes	-4532
cend	-4533
edic	-4534
▁atl	-4535
▁haw	-4536
▁rub	-4537
▁diam	-4538
forest	-4539
▁compl	-4540
▁metal	-4541
▁define	-4542
▁gravity	-4543
▁struggle	-4544
▁valuable	-4545
▁emissions	-4546
vi	-4547
mers	-4548
▁eld	-4549
▁pin	-4550
▁club	-4551
▁gift	-4552
▁impl	-4553
▁snow	-4554
ushing	-4555
▁broke	-4556
▁fewer	-4557
▁former	-4558
▁height	-4559
▁medium	-4560
▁cutting	-4561
▁kitchen	-4562
▁primary	-4563
▁selling	-4564
▁testing	-4565
▁variety	-4566
▁explains	-4567
▁republic	-4568
▁experienced	-4569
mp	-4570
rs	-4571
bur	-4572
gers	-4573
gets	-4574
mber	-4575
▁amp	-4576
▁unp	-4577
▁dots	-4578
▁scen	-4579
▁chart	-4580
▁estab	-4581
▁initi	-4582
▁toile	-4583
▁contem	-4584
▁factor	-4585
▁houses	-4586
▁winter	-4587
▁calling	-4588
▁relatively	-4589
ago	-4590
aled	-4591
cast	-4592
imin	-4593
▁jan	-4594
▁pun	-4595
▁tan	-4596
▁vag	-4597
orous	-4598
▁prev	-4599
▁colon	-4600
▁goals	-4601
▁theme	-4602
▁waves	-4603
▁buying	-4604
▁compar	-4605
▁driver	-4606
▁videos	-4607
▁eastern	-4608
▁privile	-4609
▁witness	-4610
▁expected	-4611
▁identify	-4612
▁employees	-4613
▁marketing	-4614
▁introduced	-4615
▁vulnerable	-4616
ij	-4617
rom	-4618
▁py	-4619
odes	-4620
▁bri	-4621
▁cup	-4622
▁nar	-4623
▁vib	-4624
▁wat	-4625
▁bull	-4626
▁cast	-4627
▁dogs	-4628
▁hill	-4629
▁maps	-4630
▁reci	-4631
▁soul	-4632
▁wine	-4633
lement	-4634
▁facing	-4635
▁ladies	-4636
▁laptop	-4637
▁players	-4638
▁promise	-4639
▁windows	-4640
▁brothers	-4641
▁clinical	-4642
▁lifetime	-4643
▁convinced	-4644
▁generally	-4645
▁radiation	-4646
▁typically	-4647
▁definitely	-4648
▁techniques	-4649
bre	-4650
pir	-4651
uel	-4652
anze	-4653
▁hol	-4654
▁les	-4655
▁lic	-4656
▁oct	-4657
estic	-4658
▁bare	-4659
▁flex	-4660
▁gain	-4661
▁user	-4662
▁sight	-4663
▁union	-4664
ulating	-4665
▁diplom	-4666
▁picked	-4667
▁pulled	-4668
▁safety	-4669
▁generate	-4670
▁marriage	-4671
▁prepared	-4672
▁chimpanze	-4673
▁invention	-4674
▁properties	-4675
▁photographs	-4676
han	-4677
icy	-4678
▁ip	-4679
irty	-4680
lying	-4681
▁2008	-4682
▁dish	-4683
▁mand	-4684
▁mush	-4685
▁unus	-4686
ipping	-4687
▁mosqu	-4688
▁occup	-4689
▁wikip	-4690
▁critic	-4691
▁solved	-4692
lication	-4693
▁cooking	-4694
▁germany	-4695
▁harvard	-4696
▁pacific	-4697
▁analysis	-4698
▁received	-4699
▁behaviors	-4700
▁existence	-4701
▁processes	-4702
▁efficiency	-4703
▁represents	-4704
ov	-4705
mas	-4706
abet	-4707
▁194	-4708
▁sir	-4709
▁2000	-4710
▁decl	-4711
▁remo	-4712
▁surf	-4713
▁swed	-4714
olving	-4715
▁horiz	-4716
▁input	-4717
▁assign	-4718
▁credit	-4719
▁ingred	-4720
▁prefer	-4721
▁command	-4722
▁instrum	-4723
▁sending	-4724
▁transpl	-4725
▁exercise	-4726
▁graduate	-4727
▁hydrogen	-4728
▁proteins	-4729
▁southern	-4730
▁disappear	-4731
▁framework	-4732
▁components	-4733
▁discussion	-4734
▁passionate	-4735
▁environments	-4736
ux	-4737
izz	-4738
urb	-4739
▁ens	-4740
▁sla	-4741
itals	-4742
▁alex	-4743
▁bran	-4744
▁hurt	-4745
▁nest	-4746
▁unit	-4747
▁wake	-4748
stream	-4749
▁goods	-4750
▁steve	-4751
▁mirror	-4752
▁poetry	-4753
▁cartoon	-4754
▁circuit	-4755
▁consist	-4756
▁contain	-4757
▁unusual	-4758
▁watched	-4759
▁astronom	-4760
▁official	-4761
▁requires	-4762
▁psychology	-4763
▁politicians	-4764
iel	-4765
bors	-4766
cond	-4767
rete	-4768
▁ber	-4769
▁gulf	-4770
▁shad	-4771
▁stan	-4772
▁thin	-4773
▁piano	-4774
▁risks	-4775
▁serve	-4776
▁sympt	-4777
▁bottle	-4778
▁conver	-4779
▁cortex	-4780
▁inevit	-4781
▁survey	-4782
▁applied	-4783
▁encoura	-4784
▁administ	-4785
▁sentence	-4786
▁awareness	-4787
▁computing	-4788
▁wikipedia	-4789
▁laboratory	-4790
▁connections	-4791
▁destruction	-4792
▁collaboration	-4793
▁sophisticated	-4794
▁technological	-4795
bi	-4796
ole	-4797
foot	-4798
▁aug	-4799
▁bee	-4800
▁cere	-4801
▁hits	-4802
▁mart	-4803
▁pole	-4804
rument	-4805
▁3,000	-4806
▁domin	-4807
▁facts	-4808
▁renew	-4809
▁reven	-4810
▁advent	-4811
▁blocks	-4812
▁regard	-4813
▁spider	-4814
▁centers	-4815
▁comment	-4816
▁mistake	-4817
▁introduce	-4818
▁naturally	-4819
▁satellite	-4820
▁instrument	-4821
▁percentage	-4822
nes	-4823
berg	-4824
cons	-4825
▁bat	-4826
▁rit	-4827
▁asks	-4828
▁plus	-4829
▁ride	-4830
owered	-4831
porary	-4832
▁liked	-4833
▁minim	-4834
▁sides	-4835
▁taste	-4836
osition	-4837
▁analog	-4838
▁member	-4839
▁virgin	-4840
▁carrying	-4841
▁collapse	-4842
▁internal	-4843
▁location	-4844
▁carefully	-4845
▁francisco	-4846
▁pollution	-4847
▁personally	-4848
▁profession	-4849
▁situations	-4850
▁exploration	-4851
fit	-4852
tube	-4853
▁cub	-4854
▁jul	-4855
ament	-4856
scale	-4857
▁mile	-4858
▁ring	-4859
▁aston	-4860
▁court	-4861
▁hotel	-4862
▁shame	-4863
▁shoot	-4864
itarian	-4865
▁driven	-4866
▁forced	-4867
▁forgot	-4868
▁hoping	-4869
▁string	-4870
▁autonom	-4871
▁burning	-4872
▁channel	-4873
▁depends	-4874
▁musical	-4875
▁opinion	-4876
▁director	-4877
▁mistakes	-4878
▁ancestors	-4879
▁hospitals	-4880
▁movements	-4881
▁traveling	-4882
▁wondering	-4883
▁electronic	-4884
▁healthcare	-4885
▁fundamentally	-4886
ingu	-4887
uits	-4888
whel	-4889
▁mac	-4890
▁rhy	-4891
icing	-4892
iture	-4893
▁1990	-4894
▁cath	-4895
▁cure	-4896
▁lens	-4897
▁mall	-4898
▁sees	-4899
▁tons	-4900
▁added	-4901
▁notes	-4902
▁ought	-4903
▁satis	-4904
▁tests	-4905
▁marine	-4906
▁capture	-4907
▁closely	-4908
▁discipl	-4909
▁extinct	-4910
▁orchest	-4911
▁reverse	-4912
▁vaccine	-4913
▁visible	-4914
▁overwhel	-4915
▁penguins	-4916
▁trillion	-4917
▁establish	-4918
▁neighbors	-4919
▁inspiration	-4920
▁manufacturing	-4921
dp	-4922
aren	-4923
down	-4924
ouds	-4925
▁bio	-4926
▁fib	-4927
▁exec	-4928
▁isol	-4929
▁runs	-4930
▁claim	-4931
▁dynam	-4932
▁error	-4933
▁obser	-4934
▁ridic	-4935
▁corres	-4936
▁linked	-4937
▁robert	-4938
▁senses	-4939
▁dropped	-4940
▁include	-4941
▁release	-4942
▁interests	-4943
30	-4944
pes	-4945
▁eve	-4946
lines	-4947
▁budd	-4948
▁diss	-4949
▁nurs	-4950
▁5,000	-4951
▁antib	-4952
▁atoms	-4953
▁poore	-4954
▁stret	-4955
llywood	-4956
▁bubble	-4957
▁severe	-4958
▁courage	-4959
▁falling	-4960
▁feature	-4961
▁mosquit	-4962
▁quantum	-4963
▁surgeon	-4964
▁youtube	-4965
▁birthday	-4966
▁mushroom	-4967
▁literature	-4968
▁explanation	-4969
▁presentation	-4970
▁circumstances	-4971
da	-4972
uses	-4973
zing	-4974
▁adj	-4975
▁dut	-4976
▁las	-4977
▁odd	-4978
▁wel	-4979
lands	-4980
ucing	-4981
▁bell	-4982
▁ears	-4983
▁furn	-4984
▁gree	-4985
▁reprod	-4986
▁rocket	-4987
▁cameras	-4988
▁empathy	-4989
▁empower	-4990
▁factors	-4991
▁reached	-4992
▁dramatic	-4993
▁occurred	-4994
▁recorded	-4995
▁religions	-4996
▁innovative	-4997
▁meaningful	-4998
▁educational	-4999
▁q	-5000
cal	-5001
ita	-5002
ula	-5003
hold	-5004
keys	-5005
tech	-5006
▁cro	-5007
▁gdp	-5008
▁mim	-5009
▁tap	-5010
abled	-5011
eness	-5012
▁deli	-5013
▁dere	-5014
▁gras	-5015
▁mont	-5016
▁wash	-5017
arrass	-5018
athers	-5019
cience	-5020
illing	-5021
▁curve	-5022
▁polio	-5023
▁refer	-5024
▁lifest	-5025
▁option	-5026
▁pollen	-5027
▁afterno	-5028
▁quarter	-5029
▁therapy	-5030
▁creature	-5031
▁relevant	-5032
▁wireless	-5033
▁embarrass	-5034
▁activities	-5035
ih	-5036
adic	-5037
amin	-5038
bage	-5039
onym	-5040
▁gut	-5041
▁ham	-5042
▁jer	-5043
▁phr	-5044
▁uns	-5045
vable	-5046
▁fake	-5047
▁fert	-5048
▁mere	-5049
▁shar	-5050
▁tape	-5051
anging	-5052
▁dedic	-5053
▁honey	-5054
▁skill	-5055
▁thick	-5056
▁topic	-5057
inction	-5058
▁astero	-5059
▁clever	-5060
▁explos	-5061
▁genius	-5062
▁decline	-5063
▁fishing	-5064
▁rapidly	-5065
▁singing	-5066
▁younger	-5067
▁microbes	-5068
▁increased	-5069
▁behavioral	-5070
▁unexpected	-5071
▁combination	-5072
▁transportation	-5073
500	-5074
▁23	-5075
grad	-5076
oint	-5077
over	-5078
▁sar	-5079
alled	-5080
metry	-5081
▁bicy	-5082
▁clip	-5083
▁pair	-5084
▁poly	-5085
▁vert	-5086
ession	-5087
ternal	-5088
▁cards	-5089
▁coord	-5090
▁keeps	-5091
▁plans	-5092
▁shell	-5093
▁signs	-5094
▁staff	-5095
▁fisher	-5096
▁options	-5097
abilities	-5098
▁apparent	-5099
▁sunlight	-5100
▁architects	-5101
▁productive	-5102
amb	-5103
orb	-5104
cers	-5105
onal	-5106
sour	-5107
talk	-5108
uild	-5109
▁aff	-5110
▁fou	-5111
▁max	-5112
▁ped	-5113
being	-5114
child	-5115
icted	-5116
▁bath	-5117
▁corn	-5118
▁eggs	-5119
▁frag	-5120
licity	-5121
▁prost	-5122
▁recom	-5123
▁resil	-5124
▁roads	-5125
▁trend	-5126
▁clouds	-5127
▁golden	-5128
▁strang	-5129
▁amounts	-5130
▁intense	-5131
▁operate	-5132
▁outcome	-5133
▁regions	-5134
▁combined	-5135
▁features	-5136
▁instruct	-5137
▁stronger	-5138
▁afternoon	-5139
▁continued	-5140
▁technique	-5141
▁conclusion	-5142
hr	-5143
can	-5144
gra	-5145
oft	-5146
van	-5147
war	-5148
▁22	-5149
▁pad	-5150
akers	-5151
rated	-5152
sters	-5153
▁1980	-5154
▁crop	-5155
▁joke	-5156
▁pill	-5157
▁sets	-5158
▁estim	-5159
▁split	-5160
▁upper	-5161
▁acting	-5162
▁deaths	-5163
▁divide	-5164
▁formed	-5165
▁muslim	-5166
▁perman	-5167
▁remain	-5168
ographer	-5169
▁conserv	-5170
▁harvest	-5171
▁scratch	-5172
▁tonight	-5173
▁existing	-5174
▁occasion	-5175
▁romantic	-5176
▁wherever	-5177
▁authority	-5178
▁economists	-5179
▁challenging	-5180
▁instruments	-5181
nda	-5182
rus	-5183
▁gy	-5184
abol	-5185
nced	-5186
rors	-5187
▁bes	-5188
▁wal	-5189
entic	-5190
▁ages	-5191
▁cens	-5192
▁resc	-5193
▁tube	-5194
isters	-5195
▁clock	-5196
▁cyber	-5197
▁lying	-5198
▁navig	-5199
▁teams	-5200
▁whist	-5201
▁drives	-5202
▁length	-5203
▁pocket	-5204
▁combine	-5205
▁conclud	-5206
▁engaged	-5207
▁islands	-5208
▁records	-5209
▁unclear	-5210
connected	-5211
▁accurate	-5212
▁rational	-5213
▁tracking	-5214
▁treating	-5215
▁villages	-5216
▁gentlemen	-5217
▁operation	-5218
▁recording	-5219
▁selection	-5220
▁algorithms	-5221
▁confidence	-5222
▁transformed	-5223
▁applications	-5224
ek	-5225
vin	-5226
▁2.	-5227
▁ts	-5228
▁ze	-5229
cont	-5230
elly	-5231
icip	-5232
osis	-5233
what	-5234
▁dot	-5235
▁lou	-5236
▁raw	-5237
▁sem	-5238
▁dece	-5239
▁hide	-5240
▁hook	-5241
▁limb	-5242
▁loop	-5243
▁rush	-5244
making	-5245
▁depth	-5246
▁doubt	-5247
▁falls	-5248
▁advice	-5249
▁boring	-5250
▁handle	-5251
▁inject	-5252
▁interf	-5253
▁sample	-5254
▁slides	-5255
▁worlds	-5256
inations	-5257
▁designs	-5258
▁funding	-5259
▁remains	-5260
▁unknown	-5261
▁election	-5262
▁horrible	-5263
▁infected	-5264
▁measured	-5265
▁presence	-5266
▁component	-5267
▁narrative	-5268
▁spiritual	-5269
▁controlled	-5270
▁sustainability	-5271
▁0	-5272
den	-5273
hen	-5274
oll	-5275
sum	-5276
▁na	-5277
▁rw	-5278
hour	-5279
ront	-5280
▁bay	-5281
▁der	-5282
enced	-5283
▁chic	-5284
▁gray	-5285
▁icon	-5286
▁milk	-5287
▁root	-5288
▁sept	-5289
▁tent	-5290
ortion	-5291
▁expon	-5292
▁globe	-5293
▁illeg	-5294
▁logic	-5295
▁memor	-5296
▁obama	-5297
▁clinic	-5298
▁encoun	-5299
▁storyt	-5300
▁dancing	-5301
▁defined	-5302
▁embrace	-5303
▁frankly	-5304
▁largely	-5305
▁monkeys	-5306
▁mystery	-5307
▁confront	-5308
▁paradigm	-5309
▁subjects	-5310
▁vehicles	-5311
▁determine	-5312
▁protected	-5313
▁reference	-5314
▁physically	-5315
▁conservation	-5316
▁conventional	-5317
my	-5318
azz	-5319
▁dh	-5320
▁ii	-5321
iled	-5322
▁2010	-5323
▁busy	-5324
▁gest	-5325
▁golf	-5326
▁ment	-5327
▁nose	-5328
▁scar	-5329
▁zone	-5330
phones	-5331
rition	-5332
▁bones	-5333
▁dress	-5334
▁label	-5335
▁paris	-5336
▁pitch	-5337
▁polar	-5338
▁storm	-5339
▁myster	-5340
▁stands	-5341
▁traged	-5342
▁writer	-5343
▁clothes	-5344
▁constit	-5345
▁figures	-5346
▁flowers	-5347
▁concepts	-5348
▁swimming	-5349
▁centuries	-5350
▁september	-5351
▁telescope	-5352
▁philosophy	-5353
▁implications	-5354
bra	-5355
nel	-5356
ris	-5357
vis	-5358
anta	-5359
tail	-5360
▁pra	-5361
athan	-5362
itors	-5363
▁adam	-5364
▁alph	-5365
▁boom	-5366
▁bron	-5367
▁flag	-5368
▁flew	-5369
▁jeff	-5370
▁lake	-5371
▁prem	-5372
▁span	-5373
▁spok	-5374
iosity	-5375
▁barri	-5376
▁cents	-5377
▁haiti	-5378
▁plate	-5379
▁queen	-5380
▁rooms	-5381
▁roots	-5382
▁titan	-5383
▁title	-5384
▁excell	-5385
▁papers	-5386
▁prices	-5387
▁breathe	-5388
▁causing	-5389
▁chicago	-5390
▁classes	-5391
▁evening	-5392
▁solving	-5393
▁victims	-5394
▁violent	-5395
▁concrete	-5396
▁dolphins	-5397
▁equation	-5398
▁transfer	-5399
▁celebrate	-5400
▁footprint	-5401
▁paintings	-5402
▁collection	-5403
▁entertainment	-5404
vas	-5405
thal	-5406
▁beg	-5407
▁hem	-5408
iring	-5409
oston	-5410
uting	-5411
▁axis	-5412
▁pink	-5413
▁stro	-5414
▁till	-5415
▁tort	-5416
father	-5417
▁boxes	-5418
▁delic	-5419
▁films	-5420
▁multi	-5421
▁rhyth	-5422
▁toxic	-5423
▁assist	-5424
▁candid	-5425
▁chocol	-5426
▁embedd	-5427
▁parall	-5428
▁ritual	-5429
▁surely	-5430
▁volume	-5431
▁airport	-5432
▁classic	-5433
▁concert	-5434
▁diagram	-5435
▁neither	-5436
▁stretch	-5437
▁infinite	-5438
▁instinct	-5439
▁messages	-5440
▁released	-5441
▁somewhat	-5442
▁wondered	-5443
▁collected	-5444
▁explained	-5445
▁functions	-5446
▁furniture	-5447
▁sensitive	-5448
▁mechanical	-5449
▁resistance	-5450
▁underwater	-5451
▁distributed	-5452
▁participate	-5453
▁entrepreneur	-5454
asm	-5455
mal	-5456
ras	-5457
sem	-5458
spe	-5459
ener	-5460
lymp	-5461
▁irr	-5462
▁sac	-5463
force	-5464
▁atom	-5465
▁elim	-5466
▁flor	-5467
▁geom	-5468
▁pool	-5469
▁trig	-5470
▁zoom	-5471
▁insur	-5472
▁recyc	-5473
▁songs	-5474
▁boston	-5475
▁fright	-5476
▁gender	-5477
▁iphone	-5478
▁latest	-5479
▁portra	-5480
▁accompl	-5481
▁balloon	-5482
▁careful	-5483
▁chapter	-5484
▁charity	-5485
▁parking	-5486
▁tedtalk	-5487
▁printing	-5488
▁symmetry	-5489
▁consumers	-5490
▁disorders	-5491
▁implement	-5492
▁simplicity	-5493
▁transplant	-5494
▁appropriate	-5495
ota	-5496
ille	-5497
kind	-5498
llar	-5499
▁fan	-5500
▁tea	-5501
▁tro	-5502
oding	-5503
▁lets	-5504
▁pace	-5505
▁admit	-5506
▁breed	-5507
▁false	-5508
▁knock	-5509
▁liver	-5510
▁olymp	-5511
▁smoke	-5512
▁stack	-5513
▁deploy	-5514
▁desper	-5515
▁relate	-5516
▁whales	-5517
▁defense	-5518
▁feeding	-5519
▁required	-5520
▁mechanism	-5521
▁sculpture	-5522
▁directions	-5523
bby	-5524
box	-5525
eng	-5526
iop	-5527
nic	-5528
ums	-5529
city	-5530
ests	-5531
heim	-5532
icide	-5533
iform	-5534
▁2005	-5535
▁acts	-5536
▁bike	-5537
▁cock	-5538
▁dign	-5539
▁plug	-5540
▁tank	-5541
▁chief	-5542
▁dense	-5543
▁flash	-5544
▁pharm	-5545
▁phase	-5546
▁reput	-5547
▁vital	-5548
▁correl	-5549
▁enable	-5550
▁fabric	-5551
▁lovely	-5552
▁russia	-5553
▁divided	-5554
▁kingdom	-5555
▁allowing	-5556
▁constant	-5557
▁contrast	-5558
▁hypothes	-5559
▁lifestyle	-5560
▁standards	-5561
▁appreciate	-5562
▁commitment	-5563
▁processing	-5564
▁interactive	-5565
cut	-5566
edy	-5567
hol	-5568
itz	-5569
▁hi	-5570
iend	-5571
▁rig	-5572
acles	-5573
ended	-5574
orter	-5575
▁dict	-5576
▁dust	-5577
▁lung	-5578
▁outc	-5579
▁dozen	-5580
▁persu	-5581
▁pyram	-5582
▁shake	-5583
▁silic	-5584
▁style	-5585
▁weigh	-5586
▁france	-5587
▁joined	-5588
▁owners	-5589
aneously	-5590
▁actions	-5591
▁finance	-5592
▁fingers	-5593
▁lecture	-5594
▁nowhere	-5595
▁vessels	-5596
▁embedded	-5597
▁magnetic	-5598
ologically	-5599
▁exploring	-5600
▁measuring	-5601
▁statement	-5602
▁connecting	-5603
▁optimistic	-5604
▁partnership	-5605
▁potentially	-5606
wr	-5607
def	-5608
oons	-5609
▁gps	-5610
▁mes	-5611
aming	-5612
esity	-5613
▁grab	-5614
▁jail	-5615
▁adopt	-5616
▁bombs	-5617
▁dirty	-5618
▁explo	-5619
▁faced	-5620
▁grows	-5621
▁imper	-5622
▁korea	-5623
▁sheep	-5624
▁yield	-5625
anthrop	-5626
▁button	-5627
▁devast	-5628
▁eradic	-5629
▁ethiop	-5630
▁remove	-5631
▁earthqu	-5632
▁illegal	-5633
▁impress	-5634
▁opposed	-5635
▁origami	-5636
▁illusion	-5637
▁particle	-5638
▁curiosity	-5639
▁inspiring	-5640
▁surrounded	-5641
▁manufacture	-5642
▁interestingly	-5643
iox	-5644
org	-5645
uge	-5646
yal	-5647
greg	-5648
irds	-5649
ogue	-5650
tery	-5651
well	-5652
▁ven	-5653
belie	-5654
iters	-5655
itory	-5656
owing	-5657
▁coin	-5658
▁obst	-5659
▁tack	-5660
▁ghana	-5661
▁jelly	-5662
▁judge	-5663
▁peter	-5664
▁plays	-5665
▁walks	-5666
▁wired	-5667
▁autism	-5668
▁facial	-5669
▁flower	-5670
▁hunger	-5671
▁paraly	-5672
▁phrase	-5673
▁puzzle	-5674
▁scared	-5675
▁stayed	-5676
▁suffer	-5677
▁uganda	-5678
▁attacks	-5679
▁collaps	-5680
▁diction	-5681
▁equally	-5682
▁herself	-5683
▁islamic	-5684
▁academic	-5685
▁disorder	-5686
▁pregnant	-5687
▁arguments	-5688
▁authentic	-5689
▁identical	-5690
▁increases	-5691
▁translate	-5692
▁virtually	-5693
▁greenhouse	-5694
▁automatically	-5695
dr	-5696
va	-5697
agn	-5698
ica	-5699
aret	-5700
etch	-5701
nday	-5702
oded	-5703
▁jim	-5704
esome	-5705
oster	-5706
▁clay	-5707
▁cord	-5708
▁disg	-5709
▁hack	-5710
▁item	-5711
▁knee	-5712
▁neut	-5713
▁pour	-5714
herent	-5715
▁bible	-5716
▁bless	-5717
▁chose	-5718
▁congo	-5719
▁elder	-5720
▁presc	-5721
▁score	-5722
▁texas	-5723
▁toler	-5724
▁uncom	-5725
▁wings	-5726
through	-5727
▁proced	-5728
▁struck	-5729
▁tricks	-5730
▁awesome	-5731
▁council	-5732
▁existed	-5733
▁housing	-5734
▁obesity	-5735
▁samples	-5736
▁savings	-5737
▁section	-5738
▁africans	-5739
▁lighting	-5740
▁recovery	-5741
▁symptoms	-5742
▁christmas	-5743
▁economies	-5744
▁economist	-5745
▁presented	-5746
▁spreading	-5747
▁microscope	-5748
▁astonishing	-5749
▁ub	-5750
aint	-5751
▁anx	-5752
▁ate	-5753
▁cab	-5754
▁nit	-5755
usive	-5756
▁elev	-5757
▁glad	-5758
▁manh	-5759
▁nets	-5760
▁sque	-5761
dollar	-5762
imeter	-5763
profit	-5764
ptions	-5765
▁alien	-5766
▁colum	-5767
▁datab	-5768
▁hello	-5769
▁spell	-5770
▁adjust	-5771
▁agenda	-5772
▁assume	-5773
▁commod	-5774
▁heaven	-5775
▁heroes	-5776
▁placed	-5777
▁secure	-5778
▁sweden	-5779
▁disgust	-5780
▁letting	-5781
▁rebuild	-5782
▁silence	-5783
▁touched	-5784
▁breaking	-5785
▁distinct	-5786
▁elephant	-5787
▁floating	-5788
▁stanford	-5789
▁backwards	-5790
▁chocolate	-5791
▁copyright	-5792
▁depending	-5793
▁afterwards	-5794
▁performing	-5795
▁demonstrate	-5796
ls	-5797
ua	-5798
ooth	-5799
quar	-5800
rets	-5801
▁ash	-5802
▁hal	-5803
▁voc	-5804
arant	-5805
iders	-5806
while	-5807
▁2004	-5808
▁2009	-5809
▁ours	-5810
called	-5811
▁distr	-5812
▁gates	-5813
▁latin	-5814
▁orbit	-5815
▁tasks	-5816
▁amazon	-5817
▁behave	-5818
▁filter	-5819
▁immune	-5820
▁offers	-5821
▁output	-5822
▁toilet	-5823
etically	-5824
▁advance	-5825
▁appears	-5826
▁granted	-5827
▁offered	-5828
▁synthes	-5829
▁meetings	-5830
▁properly	-5831
▁destroyed	-5832
▁physicist	-5833
▁precisely	-5834
▁telephone	-5835
▁controvers	-5836
▁incentives	-5837
▁disappeared	-5838
▁dramatically	-5839
▁productivity	-5840
▁conversations	-5841
bar	-5842
ardo	-5843
oned	-5844
pass	-5845
uate	-5846
▁meg	-5847
▁ray	-5848
▁tat	-5849
▁toy	-5850
▁diox	-5851
▁loud	-5852
▁champ	-5853
▁chest	-5854
▁chrom	-5855
▁decre	-5856
▁scary	-5857
▁arrest	-5858
▁assemb	-5859
▁legacy	-5860
▁repair	-5861
▁rising	-5862
▁anticip	-5863
▁density	-5864
▁distant	-5865
▁inspire	-5866
▁overall	-5867
▁poorest	-5868
▁silicon	-5869
▁wheelch	-5870
▁drinking	-5871
▁memories	-5872
▁outcomes	-5873
▁parallel	-5874
▁psychiat	-5875
▁algorithm	-5876
▁breathing	-5877
▁providing	-5878
▁synthetic	-5879
▁advertising	-5880
▁psychological	-5881
gic	-5882
▁bf	-5883
▁du	-5884
case	-5885
ifer	-5886
rich	-5887
rous	-5888
udes	-5889
▁gig	-5890
▁hat	-5891
▁jes	-5892
▁nic	-5893
▁spr	-5894
▁chip	-5895
▁emph	-5896
▁pand	-5897
▁salt	-5898
▁tech	-5899
usions	-5900
▁aside	-5901
▁chaos	-5902
▁derek	-5903
▁enemy	-5904
▁fifth	-5905
▁fixed	-5906
▁humor	-5907
▁remem	-5908
▁skull	-5909
▁usual	-5910
▁whale	-5911
astroph	-5912
iveness	-5913
quality	-5914
▁intent	-5915
▁monkey	-5916
▁neuron	-5917
▁poison	-5918
▁spoken	-5919
▁symmet	-5920
▁tested	-5921
▁dignity	-5922
▁federal	-5923
▁happier	-5924
▁painful	-5925
▁passing	-5926
▁tragedy	-5927
▁district	-5928
▁obsessed	-5929
▁provides	-5930
▁secondly	-5931
▁intuitive	-5932
▁practices	-5933
▁reduction	-5934
▁uncertain	-5935
▁chimpanzees	-5936
▁photography	-5937
▁represented	-5938
aks	-5939
ida	-5940
▁95	-5941
▁ol	-5942
▁ain	-5943
▁ath	-5944
▁bos	-5945
▁dow	-5946
attan	-5947
aving	-5948
cence	-5949
iment	-5950
opher	-5951
▁beer	-5952
▁bold	-5953
▁cash	-5954
▁dump	-5955
▁firm	-5956
▁fulf	-5957
▁horm	-5958
▁pile	-5959
▁pupp	-5960
▁wing	-5961
lation	-5962
rained	-5963
▁accum	-5964
▁angry	-5965
▁pilot	-5966
▁sales	-5967
▁spots	-5968
▁50,000	-5969
▁border	-5970
▁mainly	-5971
▁martin	-5972
▁orange	-5973
▁plenty	-5974
▁talent	-5975
▁carried	-5976
▁delight	-5977
▁dioxide	-5978
▁entered	-5979
▁footage	-5980
▁unbelie	-5981
▁achieved	-5982
▁attached	-5983
▁involves	-5984
▁organism	-5985
▁manhattan	-5986
▁motivation	-5987
▁reputation	-5988
ari	-5989
ola	-5990
▁32	-5991
ding	-5992
viet	-5993
wich	-5994
zero	-5995
▁gro	-5996
▁jon	-5997
▁unh	-5998
angle	-5999
inder	-6000
leton	-6001
maker	-6002
stage	-6003
acular	-6004
▁abund	-6005
▁blank	-6006
▁craft	-6007
▁fuels	-6008
▁manif	-6009
▁naked	-6010
▁nobel	-6011
▁tight	-6012
▁tries	-6013
forward	-6014
▁agreed	-6015
▁extent	-6016
▁frozen	-6017
▁intrig	-6018
▁palest	-6019
▁rwanda	-6020
▁saturn	-6021
▁stable	-6022
▁bicycle	-6023
▁habitat	-6024
▁metabol	-6025
▁millenn	-6026
▁muslims	-6027
▁wanting	-6028
▁appeared	-6029
▁download	-6030
▁estimate	-6031
▁shooting	-6032
▁privilege	-6033
▁prototype	-6034
▁accessible	-6035
▁capitalism	-6036
▁fascinated	-6037
▁governance	-6038
▁journalist	-6039
▁recognized	-6040
▁application	-6041
▁consequence	-6042
▁controlling	-6043
▁ingredients	-6044
▁vulnerability	-6045
gl	-6046
lyn	-6047
och	-6048
▁ly	-6049
iday	-6050
rary	-6051
uous	-6052
▁aim	-6053
▁ink	-6054
▁ros	-6055
acing	-6056
ontal	-6057
▁1950	-6058
▁cave	-6059
▁clar	-6060
▁clus	-6061
▁rent	-6062
abetes	-6063
▁angle	-6064
▁cryst	-6065
▁guide	-6066
▁rocks	-6067
▁schol	-6068
▁seats	-6069
▁units	-6070
▁absorb	-6071
▁adding	-6072
▁adoles	-6073
▁agency	-6074
▁curren	-6075
▁limits	-6076
▁oldest	-6077
▁poster	-6078
▁reject	-6079
▁season	-6080
▁smooth	-6081
▁thrown	-6082
▁vagina	-6083
▁beliefs	-6084
▁borders	-6085
▁forests	-6086
▁guarant	-6087
▁liberal	-6088
▁mammals	-6089
▁monitor	-6090
▁muscles	-6091
▁pyramid	-6092
▁welcome	-6093
▁contains	-6094
▁maintain	-6095
▁shoulder	-6096
▁calculate	-6097
▁continues	-6098
▁corporate	-6099
▁dimension	-6100
▁recommend	-6101
▁apparently	-6102
▁catastroph	-6103
▁earthquake	-6104
▁exhibition	-6105
▁rainforest	-6106
▁volunteers	-6107
▁grandfather	-6108
▁innovations	-6109
▁personality	-6110
▁philanthrop	-6111
▁recognition	-6112
▁spectacular	-6113
bl	-6114
lete	-6115
nded	-6116
onic	-6117
rant	-6118
▁gon	-6119
▁hen	-6120
▁nin	-6121
▁wol	-6122
ckets	-6123
going	-6124
state	-6125
think	-6126
▁peer	-6127
▁plot	-6128
▁ugly	-6129
arency	-6130
source	-6131
▁aspir	-6132
▁disag	-6133
▁drove	-6134
▁fiber	-6135
▁higgs	-6136
▁opens	-6137
▁purch	-6138
▁reson	-6139
▁youth	-6140
▁20,000	-6141
▁excuse	-6142
▁hardly	-6143
▁landed	-6144
▁oxford	-6145
▁powers	-6146
▁theore	-6147
▁tribes	-6148
▁weapon	-6149
▁angeles	-6150
▁anthrop	-6151
▁aspects	-6152
▁cheaper	-6153
▁chromos	-6154
▁january	-6155
▁pushing	-6156
▁domestic	-6157
▁engaging	-6158
▁includes	-6159
▁organize	-6160
▁overcome	-6161
▁provided	-6162
▁traveled	-6163
▁apartment	-6164
▁conflicts	-6165
▁describes	-6166
▁encounter	-6167
▁microsoft	-6168
▁orchestra	-6169
▁collecting	-6170
▁functional	-6171
▁fortunately	-6172
▁probability	-6173
▁transparency	-6174
▁globalization	-6175
era	-6176
ixt	-6177
rog	-6178
tes	-6179
ione	-6180
kins	-6181
lies	-6182
ubes	-6183
▁ack	-6184
▁sin	-6185
▁wip	-6186
archy	-6187
bally	-6188
stand	-6189
▁2003	-6190
▁acid	-6191
▁beet	-6192
▁flip	-6193
▁fool	-6194
▁gand	-6195
▁wise	-6196
arctic	-6197
esthes	-6198
heimer	-6199
▁anger	-6200
▁carol	-6201
▁fruit	-6202
▁guard	-6203
▁skept	-6204
▁smith	-6205
▁tower	-6206
▁escape	-6207
▁hearts	-6208
▁neural	-6209
▁passen	-6210
▁soviet	-6211
▁sticks	-6212
▁subtle	-6213
▁volcan	-6214
▁automob	-6215
▁raising	-6216
▁receive	-6217
▁suspect	-6218
▁darkness	-6219
▁diabetes	-6220
▁imagined	-6221
▁reaching	-6222
▁vertical	-6223
▁elsewhere	-6224
▁musicians	-6225
▁permanent	-6226
▁ridiculous	-6227
omy	-6228
opy	-6229
rol	-6230
appy	-6231
oust	-6232
▁195	-6233
▁dur	-6234
▁obl	-6235
class	-6236
power	-6237
tical	-6238
using	-6239
▁appe	-6240
▁dear	-6241
▁eleg	-6242
▁rail	-6243
▁rice	-6244
▁subs	-6245
bridge	-6246
iation	-6247
▁award	-6248
▁fears	-6249
▁finds	-6250
▁fluid	-6251
▁foods	-6252
▁meter	-6253
▁minor	-6254
▁sheet	-6255
▁stere	-6256
▁stunt	-6257
▁willi	-6258
▁yours	-6259
erences	-6260
▁attrib	-6261
▁colony	-6262
▁conven	-6263
▁extrem	-6264
▁farmer	-6265
▁ignore	-6266
▁narrow	-6267
▁refuge	-6268
▁retire	-6269
▁shadow	-6270
▁signed	-6271
▁sports	-6272
▁consume	-6273
▁fortune	-6274
▁license	-6275
▁robotic	-6276
▁session	-6277
▁suicide	-6278
▁controls	-6279
▁dynamics	-6280
▁facility	-6281
▁manifest	-6282
▁morality	-6283
▁antarctic	-6284
▁christian	-6285
▁dedicated	-6286
▁elections	-6287
▁intention	-6288
▁searching	-6289
▁separated	-6290
▁wheelchair	-6291
▁populations	-6292
pa	-6293
aws	-6294
now	-6295
pox	-6296
top	-6297
▁ba	-6298
illy	-6299
wing	-6300
▁aes	-6301
▁alz	-6302
▁cas	-6303
▁sel	-6304
ician	-6305
under	-6306
▁tied	-6307
itudes	-6308
▁aband	-6309
▁actor	-6310
▁crack	-6311
▁digit	-6312
▁legis	-6313
▁links	-6314
▁pione	-6315
▁punch	-6316
▁upset	-6317
▁anonym	-6318
▁arctic	-6319
▁borrow	-6320
▁phosph	-6321
▁regret	-6322
▁satisf	-6323
▁pulling	-6324
▁removed	-6325
▁traject	-6326
▁aircraft	-6327
▁focusing	-6328
▁globally	-6329
▁openness	-6330
▁policies	-6331
▁produces	-6332
▁sandwich	-6333
▁smallpox	-6334
▁speakers	-6335
▁textbook	-6336
▁unlikely	-6337
▁alzheimer	-6338
▁committed	-6339
▁emergency	-6340
▁terrorism	-6341
▁boundaries	-6342
▁contribute	-6343
▁engagement	-6344
▁geographic	-6345
▁integrated	-6346
▁researcher	-6347
▁strategies	-6348
▁cooperation	-6349
▁electronics	-6350
▁improvement	-6351
▁breakthrough	-6352
oo	-6353
ads	-6354
ato	-6355
ket	-6356
nam	-6357
bles	-6358
emen	-6359
keep	-6360
osen	-6361
uity	-6362
▁bin	-6363
▁gla	-6364
▁lun	-6365
▁tes	-6366
alian	-6367
licit	-6368
▁athe	-6369
▁emer	-6370
▁frog	-6371
▁hans	-6372
▁seek	-6373
▁viet	-6374
iminal	-6375
▁conce	-6376
▁crick	-6377
▁drill	-6378
▁exped	-6379
▁proof	-6380
▁spark	-6381
▁trash	-6382
iminals	-6383
▁chosen	-6384
▁compos	-6385
▁crying	-6386
▁emphas	-6387
▁expans	-6388
▁jewish	-6389
▁layers	-6390
▁native	-6391
▁nurses	-6392
▁repeat	-6393
▁scream	-6394
▁silent	-6395
▁trends	-6396
▁trucks	-6397
▁amongst	-6398
▁clients	-6399
▁exposed	-6400
▁hanging	-6401
▁initial	-6402
▁lawyers	-6403
▁conclude	-6404
▁dinosaur	-6405
▁incident	-6406
▁repeated	-6407
▁returned	-6408
▁surfaces	-6409
▁customers	-6410
▁frequency	-6411
▁hollywood	-6412
▁affordable	-6413
▁ecosystems	-6414
▁explaining	-6415
▁underlying	-6416
▁discoveries	-6417
▁agricultural	-6418
▁photographer	-6419
▁architectural	-6420
-1	-6421
ela	-6422
ault	-6423
▁aer	-6424
▁enh	-6425
▁lux	-6426
▁sed	-6427
erved	-6428
izoph	-6429
night	-6430
▁cham	-6431
▁cott	-6432
▁cous	-6433
▁debt	-6434
▁hire	-6435
▁june	-6436
▁pale	-6437
▁palm	-6438
▁poet	-6439
▁refr	-6440
▁advoc	-6441
▁cable	-6442
▁drawn	-6443
▁flour	-6444
▁laser	-6445
▁maxim	-6446
▁nutri	-6447
▁phant	-6448
▁sharp	-6449
▁sixth	-6450
▁tired	-6451
▁ultra	-6452
▁attend	-6453
▁hungry	-6454
▁locked	-6455
▁margin	-6456
▁scales	-6457
▁shaped	-6458
▁comprom	-6459
▁consult	-6460
▁dolphin	-6461
▁efforts	-6462
▁emerged	-6463
▁instant	-6464
▁paradox	-6465
▁reduced	-6466
▁sensory	-6467
▁ethiopia	-6468
▁extended	-6469
▁football	-6470
▁reminded	-6471
▁schizoph	-6472
▁stations	-6473
▁generated	-6474
▁teenagers	-6475
▁industries	-6476
▁observation	-6477
▁underground	-6478
▁photographed	-6479
wa	-6480
cip	-6481
ndr	-6482
sey	-6483
ups	-6484
uum	-6485
fall	-6486
fast	-6487
fold	-6488
izar	-6489
ulse	-6490
urse	-6491
▁10-	-6492
▁bug	-6493
▁hip	-6494
agger	-6495
ribly	-6496
ville	-6497
▁2001	-6498
▁bars	-6499
▁bias	-6500
▁bubb	-6501
▁cute	-6502
▁gore	-6503
▁leap	-6504
▁orph	-6505
▁publ	-6506
▁tuna	-6507
market	-6508
▁helic	-6509
▁holds	-6510
▁nurse	-6511
▁opera	-6512
▁scott	-6513
▁tooth	-6514
▁utter	-6515
century	-6516
ishment	-6517
▁actors	-6518
▁barrel	-6519
▁cheese	-6520
▁inches	-6521
▁lawyer	-6522
▁observ	-6523
▁vacuum	-6524
▁worker	-6525
children	-6526
▁aggress	-6527
▁concern	-6528
▁disturb	-6529
▁ethical	-6530
▁florida	-6531
▁garbage	-6532
▁methods	-6533
▁miracle	-6534
▁persist	-6535
▁reports	-6536
▁artistic	-6537
▁asteroid	-6538
▁atlantic	-6539
▁baseball	-6540
▁fabulous	-6541
▁hardware	-6542
▁perceive	-6543
▁cambridge	-6544
▁dependent	-6545
▁depressed	-6546
▁historical	-6547
▁treatments	-6548
▁interacting	-6549
▁predictions	-6550
▁contemporary	-6551
▁expectations	-6552
▁neuroscience	-6553
▁collaborative	-6554
▁characteristics	-6555
ev	-6556
aze	-6557
usi	-6558
vey	-6559
zan	-6560
list	-6561
viol	-6562
▁191	-6563
▁gir	-6564
▁tut	-6565
▁twe	-6566
amine	-6567
rical	-6568
▁caps	-6569
▁ford	-6570
▁grat	-6571
▁jose	-6572
▁laid	-6573
▁mice	-6574
▁nurt	-6575
▁bronx	-6576
▁realm	-6577
▁seeds	-6578
▁barely	-6579
▁capita	-6580
▁ethnic	-6581
▁evolve	-6582
▁howard	-6583
▁invite	-6584
▁rarely	-6585
▁senior	-6586
▁stages	-6587
▁subway	-6588
▁briefly	-6589
▁parties	-6590
▁speaker	-6591
▁statist	-6592
▁external	-6593
▁accidents	-6594
▁announced	-6595
▁colleague	-6596
▁determined	-6597
▁disappoint	-6598
▁protecting	-6599
▁reconstruct	-6600
▁interactions	-6601
▁surprisingly	-6602
hal	-6603
▁28	-6604
agen	-6605
aran	-6606
oran	-6607
orus	-6608
otes	-6609
▁250	-6610
▁doz	-6611
▁gam	-6612
▁hub	-6613
▁jam	-6614
▁wet	-6615
esign	-6616
itous	-6617
osure	-6618
worth	-6619
▁adap	-6620
▁biod	-6621
▁chop	-6622
▁eric	-6623
▁rely	-6624
▁rope	-6625
▁rose	-6626
▁tony	-6627
semble	-6628
▁abuse	-6629
▁arrow	-6630
▁burst	-6631
▁likes	-6632
▁nerve	-6633
▁route	-6634
unction	-6635
▁acknow	-6636
▁emerge	-6637
▁fertil	-6638
▁linear	-6639
▁sacred	-6640
▁scenar	-6641
▁spinal	-6642
▁steven	-6643
▁leather	-6644
▁painted	-6645
▁phantom	-6646
▁picking	-6647
▁prepare	-6648
▁prosper	-6649
▁recover	-6650
▁regener	-6651
▁captured	-6652
▁figuring	-6653
▁excellent	-6654
▁insurance	-6655
▁nutrition	-6656
▁strangers	-6657
▁expectancy	-6658
▁traditions	-6659
▁schizophren	-6660
▁transparent	-6661
▁experimental	-6662
eda	-6663
ini	-6664
sec	-6665
bits	-6666
iens	-6667
ober	-6668
west	-6669
▁dop	-6670
▁spa	-6671
▁wil	-6672
capes	-6673
copes	-6674
flies	-6675
iogen	-6676
▁bure	-6677
▁cats	-6678
▁kiss	-6679
▁pigs	-6680
▁sacr	-6681
▁sits	-6682
▁susp	-6683
ivered	-6684
izarre	-6685
lessly	-6686
utical	-6687
▁4,000	-6688
▁crops	-6689
▁flows	-6690
▁gonna	-6691
▁grace	-6692
▁outer	-6693
▁parli	-6694
▁proto	-6695
▁tribe	-6696
▁breaks	-6697
▁degrad	-6698
▁missed	-6699
▁newton	-6700
▁rhythm	-6701
▁shrimp	-6702
▁simult	-6703
▁stores	-6704
▁tumors	-6705
▁twenty	-6706
chnology	-6707
▁bizarre	-6708
▁circles	-6709
▁electro	-6710
▁failing	-6711
▁methane	-6712
▁october	-6713
▁pointed	-6714
▁promote	-6715
▁sensors	-6716
▁sisters	-6717
▁writers	-6718
▁articles	-6719
▁climbing	-6720
▁criminal	-6721
▁insights	-6722
▁shopping	-6723
▁classical	-6724
▁expanding	-6725
▁gathering	-6726
▁highlight	-6727
▁paralyzed	-6728
▁variation	-6729
▁inevitable	-6730
▁initiative	-6731
▁operations	-6732
▁resilience	-6733
▁instructions	-6734
▁communications	-6735
aid	-6736
har	-6737
hop	-6738
ura	-6739
▁kb	-6740
▁ng	-6741
eday	-6742
onia	-6743
osal	-6744
ulum	-6745
▁bats	-6746
▁dawn	-6747
▁mail	-6748
▁mate	-6749
▁neat	-6750
ateful	-6751
mingly	-6752
unning	-6753
▁banks	-6754
▁henry	-6755
▁italy	-6756
▁relax	-6757
▁strip	-6758
▁ubiqu	-6759
▁views	-6760
vention	-6761
▁arrive	-6762
▁branch	-6763
▁buried	-6764
▁decent	-6765
▁funded	-6766
▁reveal	-6767
▁richer	-6768
▁settle	-6769
▁sevent	-6770
▁skelet	-6771
▁essence	-6772
▁imaging	-6773
▁neander	-6774
▁slavery	-6775
▁someday	-6776
▁visited	-6777
▁winning	-6778
aceutical	-6779
▁crossing	-6780
▁distract	-6781
▁educated	-6782
▁flexible	-6783
▁leverage	-6784
▁optimism	-6785
▁sleeping	-6786
▁fortunate	-6787
▁glamorous	-6788
▁jellyfish	-6789
▁substance	-6790
▁capability	-6791
▁parliament	-6792
ba	-6793
hm	-6794
cel	-6795
dle	-6796
ods	-6797
ria	-6798
sah	-6799
ses	-6800
▁0.	-6801
▁85	-6802
esis	-6803
iban	-6804
icks	-6805
uces	-6806
▁fer	-6807
▁jet	-6808
▁luc	-6809
▁rio	-6810
▁sav	-6811
gener	-6812
ogram	-6813
▁arth	-6814
▁deaf	-6815
▁dive	-6816
▁enth	-6817
▁febr	-6818
▁gate	-6819
▁hier	-6820
▁hind	-6821
▁tear	-6822
▁trop	-6823
▁tsun	-6824
▁whis	-6825
ashing	-6826
astics	-6827
minute	-6828
rating	-6829
▁coach	-6830
▁devil	-6831
▁genoc	-6832
▁jesus	-6833
▁mayor	-6834
▁miser	-6835
▁silly	-6836
▁stops	-6837
▁threw	-6838
igation	-6839
▁curric	-6840
▁dozens	-6841
▁headed	-6842
▁partly	-6843
▁pursue	-6844
▁regime	-6845
▁thresh	-6846
esthesia	-6847
▁adopted	-6848
▁analyze	-6849
▁crucial	-6850
▁diverse	-6851
▁graphic	-6852
▁hunting	-6853
▁reminds	-6854
▁revenue	-6855
▁symbols	-6856
▁accepted	-6857
▁correspo	-6858
▁currency	-6859
▁february	-6860
▁homeless	-6861
▁prostate	-6862
▁skeleton	-6863
▁daughters	-6864
▁initially	-6865
▁intuition	-6866
▁predicted	-6867
▁qualities	-6868
▁commission	-6869
▁originally	-6870
▁proportion	-6871
▁resolution	-6872
▁trajectory	-6873
wl	-6874
dam	-6875
hum	-6876
omp	-6877
▁mt	-6878
▁pm	-6879
ache	-6880
ares	-6881
itan	-6882
olic	-6883
play	-6884
walk	-6885
▁800	-6886
▁bob	-6887
▁dun	-6888
▁dys	-6889
▁egg	-6890
▁jar	-6891
▁joe	-6892
▁mri	-6893
▁bend	-6894
▁homo	-6895
▁lock	-6896
▁mode	-6897
▁odds	-6898
▁rats	-6899
makers	-6900
▁amate	-6901
▁arist	-6902
▁blogs	-6903
▁bucks	-6904
▁charl	-6905
▁downt	-6906
▁gorge	-6907
▁intim	-6908
▁memes	-6909
▁moore	-6910
▁owner	-6911
▁plain	-6912
▁shore	-6913
▁spont	-6914
▁syndr	-6915
▁veter	-6916
▁wound	-6917
working	-6918
▁caring	-6919
▁export	-6920
▁halluc	-6921
▁injury	-6922
▁killer	-6923
▁merely	-6924
▁recess	-6925
▁robust	-6926
▁bottles	-6927
▁fiction	-6928
▁founded	-6929
▁helicop	-6930
▁imagery	-6931
▁dominant	-6932
▁dopamine	-6933
▁fraction	-6934
▁graphics	-6935
▁keyboard	-6936
▁pandemic	-6937
▁reported	-6938
▁robotics	-6939
▁airplanes	-6940
▁confident	-6941
▁delivered	-6942
▁detection	-6943
▁diagnosed	-6944
▁explosion	-6945
▁forgotten	-6946
▁suggested	-6947
▁transcend	-6948
▁biologists	-6949
▁mechanisms	-6950
▁mysterious	-6951
▁suggesting	-6952
▁biodiversity	-6953
▁occasionally	-6954
▁successfully	-6955
▁pharmaceutical	-6956
hy	-6957
mo	-6958
bed	-6959
reh	-6960
rix	-6961
▁3.	-6962
,500	-6963
agos	-6964
half	-6965
yard	-6966
▁upd	-6967
▁wid	-6968
bered	-6969
chron	-6970
ested	-6971
inson	-6972
opath	-6973
▁abra	-6974
▁bump	-6975
▁butt	-6976
▁earn	-6977
▁glor	-6978
▁guns	-6979
▁indo	-6980
▁lone	-6981
▁meal	-6982
▁neck	-6983
▁soup	-6984
▁stom	-6985
icious	-6986
parent	-6987
▁audio	-6988
▁brian	-6989
▁cliff	-6990
▁loves	-6991
▁mixed	-6992
▁paras	-6993
▁spray	-6994
▁tempt	-6995
▁wider	-6996
imately	-6997
related	-6998
▁cosmic	-6999
▁domain	-7000
▁ending	-7001
▁mining	-7002
▁rescue	-7003
▁scores	-7004
▁served	-7005
▁stroke	-7006
▁tracks	-7007
▁turkey	-7008
▁citizen	-7009
▁deserve	-7010
▁elderly	-7011
▁enlight	-7012
▁enthusi	-7013
▁forming	-7014
▁fragile	-7015
▁hitting	-7016
▁pretend	-7017
▁russian	-7018
▁spreads	-7019
▁staying	-7020
▁taliban	-7021
▁agencies	-7022
▁genetics	-7023
▁plastics	-7024
▁reducing	-7025
▁sciences	-7026
▁shocking	-7027
▁surgeons	-7028
▁theories	-7029
▁adventure	-7030
▁exception	-7031
▁phenomena	-7032
▁primarily	-7033
▁realizing	-7034
▁supported	-7035
▁uncomfort	-7036
▁dictionary	-7037
▁identified	-7038
▁impression	-7039
▁permission	-7040
▁phosphorus	-7041
▁simulation	-7042
▁struggling	-7043
▁description	-7044
▁unbelievable	-7045
▁universities	-7046
▁administration	-7047
oe	-7048
vy	-7049
asy	-7050
ecd	-7051
isa	-7052
ocr	-7053
▁dy	-7054
free	-7055
gend	-7056
oked	-7057
vest	-7058
▁120	-7059
▁alb	-7060
▁sty	-7061
adays	-7062
gence	-7063
iance	-7064
level	-7065
▁buff	-7066
▁cake	-7067
▁dile	-7068
▁hors	-7069
▁sink	-7070
▁tone	-7071
▁tong	-7072
aneous	-7073
soever	-7074
▁array	-7075
▁bears	-7076
▁begun	-7077
▁gotta	-7078
▁lifes	-7079
▁monit	-7080
▁physi	-7081
▁restr	-7082
inarily	-7083
saharan	-7084
▁carpet	-7085
▁county	-7086
▁defend	-7087
▁ensure	-7088
▁garage	-7089
▁panels	-7090
▁pushed	-7091
▁trains	-7092
▁waters	-7093
fficient	-7094
▁elected	-7095
▁fastest	-7096
▁shelter	-7097
▁smarter	-7098
▁connects	-7099
▁interior	-7100
▁magnific	-7101
▁measures	-7102
▁nowadays	-7103
▁syndrome	-7104
▁breakfast	-7105
▁immediate	-7106
▁improving	-7107
▁instantly	-7108
▁primitive	-7109
▁sentences	-7110
▁comparison	-7111
▁elementary	-7112
▁hypothesis	-7113
▁translated	-7114
▁whatsoever	-7115
▁exponential	-7116
▁restaurants	-7117
▁uncertainty	-7118
▁grandchildren	-7119
iac	-7120
uff	-7121
ails	-7122
atar	-7123
coln	-7124
iety	-7125
izer	-7126
part	-7127
ropy	-7128
ship	-7129
umin	-7130
▁mud	-7131
▁pir	-7132
▁tam	-7133
▁tip	-7134
cohol	-7135
ostic	-7136
world	-7137
▁drew	-7138
▁duck	-7139
▁fung	-7140
▁gear	-7141
▁josh	-7142
▁lamp	-7143
▁pizz	-7144
▁prec	-7145
▁shan	-7146
▁suck	-7147
encing	-7148
engine	-7149
iences	-7150
iotics	-7151
mented	-7152
umines	-7153
▁blame	-7154
▁dilem	-7155
▁edges	-7156
▁glaci	-7157
▁ingen	-7158
▁insul	-7159
▁males	-7160
▁shots	-7161
▁tatto	-7162
athered	-7163
looking	-7164
powered	-7165
▁comedy	-7166
▁editor	-7167
▁empire	-7168
▁endang	-7169
▁formal	-7170
▁ticket	-7171
▁alcohol	-7172
▁disrupt	-7173
▁fathers	-7174
▁horizon	-7175
▁immense	-7176
▁johnson	-7177
▁lincoln	-7178
▁pockets	-7179
▁portion	-7180
▁redwood	-7181
▁attitude	-7182
▁entering	-7183
▁friendly	-7184
▁geometry	-7185
▁grateful	-7186
▁homework	-7187
▁musician	-7188
▁synchron	-7189
▁physician	-7190
▁replicate	-7191
▁signature	-7192
▁facilities	-7193
▁discovering	-7194
▁significantly	-7195
ati	-7196
auc	-7197
bow	-7198
apor	-7199
conf	-7200
erer	-7201
ghai	-7202
wind	-7203
▁cig	-7204
▁lit	-7205
▁ooh	-7206
▁tie	-7207
eller	-7208
lades	-7209
▁boss	-7210
▁dies	-7211
▁drum	-7212
▁dumb	-7213
▁dung	-7214
▁fest	-7215
▁leon	-7216
▁quad	-7217
▁quit	-7218
▁tedx	-7219
▁toys	-7220
othing	-7221
▁agent	-7222
▁bored	-7223
▁buddh	-7224
▁greek	-7225
▁kills	-7226
▁koran	-7227
▁revol	-7228
▁tears	-7229
▁weeke	-7230
▁wheat	-7231
▁annual	-7232
▁canopy	-7233
▁chairs	-7234
▁cotton	-7235
▁fusion	-7236
▁jumped	-7237
▁makers	-7238
▁marvel	-7239
▁motors	-7240
▁needle	-7241
▁perpet	-7242
▁preval	-7243
▁rivers	-7244
▁silver	-7245
▁tragic	-7246
▁academy	-7247
▁arguing	-7248
▁besides	-7249
▁bubbles	-7250
▁charges	-7251
▁convert	-7252
▁enterpr	-7253
▁farming	-7254
▁glamour	-7255
▁impacts	-7256
▁luckily	-7257
▁percept	-7258
▁puzzles	-7259
▁serving	-7260
▁tissues	-7261
▁tsunami	-7262
▁warning	-7263
▁accompan	-7264
▁database	-7265
▁dialogue	-7266
▁inventor	-7267
▁proposed	-7268
▁tendency	-7269
▁terribly	-7270
▁banglades	-7271
▁expansion	-7272
▁expecting	-7273
▁infection	-7274
▁investing	-7275
▁protocell	-7276
▁remaining	-7277
▁threshold	-7278
▁curriculum	-7279
▁ecological	-7280
▁extinction	-7281
▁ubiquitous	-7282
▁computation	-7283
▁demographic	-7284
▁philosopher	-7285
▁translation	-7286
▁civilizations	-7287
▁mathematicians	-7288
za	-7289
che	-7290
exp	-7291
fin	-7292
ora	-7293
rot	-7294
toc	-7295
▁ak	-7296
▁lg	-7297
▁os	-7298
agon	-7299
bled	-7300
▁fet	-7301
▁kar	-7302
▁mcd	-7303
▁nom	-7304
▁vit	-7305
onald	-7306
tocin	-7307
▁anat	-7308
▁benj	-7309
▁cert	-7310
▁chef	-7311
▁cows	-7312
▁hong	-7313
▁jane	-7314
▁jazz	-7315
▁labs	-7316
▁leaf	-7317
▁nick	-7318
▁shit	-7319
▁subt	-7320
▁wolf	-7321
▁armed	-7322
▁brook	-7323
▁chron	-7324
▁dutch	-7325
▁elite	-7326
▁glimp	-7327
▁legit	-7328
▁redef	-7329
▁reefs	-7330
▁sauce	-7331
▁spill	-7332
▁squee	-7333
▁steam	-7334
▁winds	-7335
angible	-7336
attered	-7337
section	-7338
▁acoust	-7339
▁august	-7340
▁builds	-7341
▁excess	-7342
▁orient	-7343
▁sketch	-7344
▁tanzan	-7345
quarters	-7346
▁contrad	-7347
▁entropy	-7348
▁flowing	-7349
▁highway	-7350
▁insulin	-7351
▁magical	-7352
▁penguin	-7353
▁restore	-7354
▁routine	-7355
▁targets	-7356
▁uniform	-7357
▁category	-7358
▁covering	-7359
▁distingu	-7360
▁gorgeous	-7361
▁inherent	-7362
▁mosquito	-7363
▁oxytocin	-7364
▁preserve	-7365
▁remained	-7366
▁shanghai	-7367
▁wildlife	-7368
▁biologist	-7369
▁conducted	-7370
otechnology	-7371
▁antarctica	-7372
▁discipline	-7373
▁endangered	-7374
▁terrorists	-7375
▁genetically	-7376
▁professionals	-7377
▁uncomfortable	-7378
▁interpretation	-7379
▁simultaneously	-7380
apy	-7381
enh	-7382
▁rb	-7383
chem	-7384
illa	-7385
long	-7386
onge	-7387
▁jih	-7388
▁lee	-7389
▁ner	-7390
ading	-7391
ifice	-7392
omics	-7393
oning	-7394
ynman	-7395
▁brid	-7396
▁coke	-7397
▁crew	-7398
▁damn	-7399
▁gaps	-7400
▁holy	-7401
▁jugg	-7402
▁meme	-7403
▁sulf	-7404
▁summ	-7405
▁thus	-7406
▁wedd	-7407
▁cabin	-7408
▁delhi	-7409
▁dough	-7410
▁eaten	-7411
▁incor	-7412
▁joint	-7413
▁owned	-7414
▁pizza	-7415
▁traum	-7416
▁yemen	-7417
▁approx	-7418
▁assess	-7419
▁client	-7420
▁errors	-7421
▁fibers	-7422
▁improv	-7423
▁matrix	-7424
▁planes	-7425
▁recept	-7426
▁tackle	-7427
interest	-7428
▁ceiling	-7429
▁closing	-7430
▁engines	-7431
▁feynman	-7432
▁located	-7433
▁offices	-7434
▁onstage	-7435
▁rolling	-7436
▁stephen	-7437
▁wealthy	-7438
▁channels	-7439
▁delivery	-7440
▁detailed	-7441
▁innocent	-7442
▁judgment	-7443
▁laughing	-7444
▁precious	-7445
▁shifting	-7446
▁suffered	-7447
▁biosphere	-7448
▁documents	-7449
▁expertise	-7450
▁gentleman	-7451
▁gradually	-7452
▁nutrients	-7453
▁objective	-7454
▁positions	-7455
▁similarly	-7456
▁stability	-7457
▁attractive	-7458
▁continents	-7459
▁continuing	-7460
▁disability	-7461
▁frustrated	-7462
▁prevention	-7463
▁remembered	-7464
▁vegetables	-7465
▁assumptions	-7466
▁programming	-7467
▁transforming	-7468
▁compassionate	-7469
▁institutional	-7470
▁interconnected	-7471
ki	-7472
bul	-7473
see	-7474
yan	-7475
▁33	-7476
ilit	-7477
onds	-7478
rian	-7479
▁bol	-7480
▁fox	-7481
▁voy	-7482
cript	-7483
mates	-7484
▁biol	-7485
▁cass	-7486
▁dent	-7487
▁dism	-7488
▁fits	-7489
▁forb	-7490
▁junk	-7491
▁pref	-7492
▁rabb	-7493
▁surg	-7494
asters	-7495
ughter	-7496
▁camps	-7497
▁choir	-7498
▁fires	-7499
▁jihad	-7500
▁kevin	-7501
▁recru	-7502
▁spain	-7503
▁spons	-7504
▁tubes	-7505
▁twist	-7506
▁30,000	-7507
▁andrew	-7508
▁burned	-7509
▁dragon	-7510
▁freely	-7511
▁insane	-7512
▁insist	-7513
▁namely	-7514
▁occurs	-7515
▁orphan	-7516
▁strike	-7517
▁subsid	-7518
▁traits	-7519
▁wheels	-7520
▁widely	-7521
▁abraham	-7522
▁affects	-7523
▁gallery	-7524
▁glasses	-7525
▁harness	-7526
▁intrins	-7527
▁prescri	-7528
▁printed	-7529
▁protest	-7530
▁downtown	-7531
▁included	-7532
▁informed	-7533
▁isolated	-7534
▁offering	-7535
▁pointing	-7536
▁reinvent	-7537
▁worrying	-7538
▁audiences	-7539
▁extension	-7540
▁factories	-7541
▁ownership	-7542
▁passenger	-7543
▁performed	-7544
▁procedure	-7545
▁appearance	-7546
▁inequality	-7547
▁infections	-7548
▁previously	-7549
▁profoundly	-7550
▁approaching	-7551
▁encouraging	-7552
▁conservative	-7553
▁experiencing	-7554
▁demonstration	-7555
▁mathematician	-7556
ata	-7557
irm	-7558
isy	-7559
lim	-7560
mod	-7561
aded	-7562
away	-7563
born	-7564
char	-7565
cher	-7566
cost	-7567
itar	-7568
ploy	-7569
quis	-7570
sell	-7571
▁amy	-7572
▁aqu	-7573
▁bot	-7574
▁ceo	-7575
▁cyl	-7576
▁dil	-7577
▁ell	-7578
▁hut	-7579
▁lap	-7580
▁sud	-7581
▁sup	-7582
▁une	-7583
▁via	-7584
aland	-7585
burgh	-7586
emics	-7587
heart	-7588
reced	-7589
rence	-7590
▁bind	-7591
▁bond	-7592
▁brut	-7593
▁enem	-7594
▁eval	-7595
▁excl	-7596
▁genu	-7597
▁glue	-7598
▁gods	-7599
▁hipp	-7600
▁hybr	-7601
▁lord	-7602
▁toss	-7603
mitted	-7604
▁clint	-7605
▁comic	-7606
▁fancy	-7607
▁funds	-7608
▁grasp	-7609
▁immun	-7610
▁marry	-7611
▁ratio	-7612
▁santa	-7613
▁shelf	-7614
▁shout	-7615
▁subur	-7616
▁tends	-7617
▁treas	-7618
▁wires	-7619
parents	-7620
▁aggreg	-7621
▁arabic	-7622
▁basket	-7623
▁burden	-7624
▁comics	-7625
▁crowds	-7626
▁fought	-7627
▁lowest	-7628
▁propag	-7629
▁sheets	-7630
▁shrink	-7631
▁tunnel	-7632
▁unable	-7633
▁uncons	-7634
▁analogy	-7635
▁barrier	-7636
▁beneath	-7637
▁chances	-7638
▁closest	-7639
▁compete	-7640
▁demands	-7641
▁dressed	-7642
▁drivers	-7643
▁ecology	-7644
▁enables	-7645
▁iceland	-7646
▁involve	-7647
▁italian	-7648
▁laptops	-7649
▁mapping	-7650
▁observe	-7651
▁package	-7652
▁powered	-7653
▁printer	-7654
▁privacy	-7655
▁profile	-7656
▁reactor	-7657
▁soldier	-7658
▁spanish	-7659
▁stepped	-7660
▁tension	-7661
▁terrain	-7662
▁threats	-7663
▁benjamin	-7664
▁confused	-7665
▁contrary	-7666
▁december	-7667
▁gathered	-7668
▁genocide	-7669
▁historic	-7670
▁improved	-7671
▁socially	-7672
▁supplies	-7673
▁unpreced	-7674
▁constrain	-7675
▁delicious	-7676
▁empowered	-7677
▁headlines	-7678
▁healthier	-7679
▁incentive	-7680
▁prisoners	-7681
▁autonomous	-7682
▁biolumines	-7683
▁expedition	-7684
▁threatened	-7685
▁achievement	-7686
▁constructed	-7687
▁intervention	-7688
▁participants	-7689
▁unprecedented	-7690
ado	-7691
bod	-7692
▁55	-7693
▁ib	-7694
▁uh	-7695
ague	-7696
cycl	-7697
lson	-7698
road	-7699
seen	-7700
▁20-	-7701
▁30-	-7702
▁gif	-7703
▁kir	-7704
▁tib	-7705
▁zip	-7706
allow	-7707
arest	-7708
grade	-7709
orage	-7710
▁2050	-7711
▁beij	-7712
▁cher	-7713
▁coch	-7714
▁guid	-7715
▁leop	-7716
▁mike	-7717
▁mold	-7718
▁ngos	-7719
▁toes	-7720
▁urge	-7721
▁wrap	-7722
active	-7723
▁defic	-7724
▁fluct	-7725
▁hawai	-7726
▁hemis	-7727
▁overl	-7728
▁panel	-7729
▁pause	-7730
▁peers	-7731
▁royal	-7732
▁schem	-7733
▁shine	-7734
▁stake	-7735
▁stamp	-7736
▁steal	-7737
▁symph	-7738
▁valid	-7739
▁viral	-7740
tending	-7741
▁gained	-7742
▁harbor	-7743
▁horses	-7744
▁nelson	-7745
▁nerves	-7746
▁sunday	-7747
▁victim	-7748
changing	-7749
▁aristot	-7750
▁arrange	-7751
▁beating	-7752
▁cancers	-7753
▁cigaret	-7754
▁enemies	-7755
▁mandela	-7756
▁origins	-7757
▁reserve	-7758
▁selfish	-7759
▁shocked	-7760
▁smiling	-7761
▁storage	-7762
▁torture	-7763
▁unhappy	-7764
▁activist	-7765
▁answered	-7766
▁clothing	-7767
▁earliest	-7768
▁navigate	-7769
▁palestin	-7770
▁refriger	-7771
▁relation	-7772
▁reserves	-7773
▁scholars	-7774
▁smallest	-7775
▁transmit	-7776
▁virginia	-7777
▁animation	-7778
▁electrons	-7779
▁elephants	-7780
▁miserable	-7781
▁radically	-7782
▁volunteer	-7783
▁assumption	-7784
▁categories	-7785
▁generating	-7786
▁impressive	-7787
▁influenced	-7788
▁newspapers	-7789
▁supporting	-7790
▁terrifying	-7791
▁expressions	-7792
▁foundations	-7793
▁magnificent	-7794
▁participation	-7795
▁extraordinarily	-7796
uk	-7797
bie	-7798
bye	-7799
leg	-7800
nis	-7801
oma	-7802
east	-7803
iler	-7804
mill	-7805
pher	-7806
▁apr	-7807
▁dub	-7808
▁jac	-7809
▁mol	-7810
▁ski	-7811
copic	-7812
haust	-7813
icial	-7814
otion	-7815
▁2002	-7816
▁file	-7817
▁murd	-7818
▁nuts	-7819
▁seal	-7820
▁tale	-7821
▁ward	-7822
americ	-7823
thirds	-7824
▁ambig	-7825
▁chips	-7826
▁deals	-7827
▁doors	-7828
▁excit	-7829
▁immig	-7830
▁lever	-7831
▁pills	-7832
▁proph	-7833
▁remix	-7834
▁ships	-7835
▁stair	-7836
▁swiss	-7837
▁tiles	-7838
▁convey	-7839
▁cycles	-7840
▁daniel	-7841
▁diving	-7842
▁joshua	-7843
▁kidney	-7844
▁relief	-7845
▁shakes	-7846
▁speaks	-7847
▁tempor	-7848
▁thread	-7849
▁tongue	-7850
▁troops	-7851
▁voting	-7852
▁wooden	-7853
otherapy	-7854
▁200,000	-7855
▁bureauc	-7856
▁clinton	-7857
▁cricket	-7858
▁formula	-7859
▁genuine	-7860
▁helpful	-7861
▁implant	-7862
▁indones	-7863
▁ongoing	-7864
▁patents	-7865
▁reveals	-7866
▁teenage	-7867
▁counting	-7868
▁purposes	-7869
▁reliable	-7870
▁versions	-7871
▁anonymous	-7872
▁broadcast	-7873
▁collapsed	-7874
▁distances	-7875
▁guarantee	-7876
▁meanwhile	-7877
▁obstacles	-7878
▁predators	-7879
▁preparing	-7880
▁additional	-7881
▁assignment	-7882
▁bangladesh	-7883
▁challenged	-7884
▁classrooms	-7885
▁compelling	-7886
▁intriguing	-7887
▁landscapes	-7888
▁prosthetic	-7889
▁spacecraft	-7890
▁telescopes	-7891
▁antibiotics	-7892
▁devastating	-7893
▁established	-7894
▁limitations	-7895
▁surrounding	-7896
▁unconscious	-7897
▁neighborhoods	-7898
▁representation	-7899
▁straightforward	-7900
200	-7901
ava	-7902
boo	-7903
dig	-7904
law	-7905
nut	-7906
ona	-7907
pie	-7908
tra	-7909
▁kh	-7910
▁nu	-7911
abil	-7912
aine	-7913
iate	-7914
ilty	-7915
▁inn	-7916
▁nap	-7917
▁tin	-7918
ashed	-7919
aters	-7920
oline	-7921
orden	-7922
otted	-7923
uther	-7924
▁dirt	-7925
▁horr	-7926
▁jung	-7927
▁lean	-7928
▁mary	-7929
▁mesh	-7930
▁nano	-7931
▁pige	-7932
▁sale	-7933
▁stew	-7934
▁tune	-7935
assemb	-7936
cyclop	-7937
mental	-7938
▁alpha	-7939
▁april	-7940
▁badly	-7941
▁balls	-7942
▁brush	-7943
▁cruel	-7944
▁herit	-7945
▁jones	-7946
▁membr	-7947
▁mimic	-7948
▁minus	-7949
▁probe	-7950
▁shirt	-7951
▁worms	-7952
▁40,000	-7953
▁	-7954
e	-7955
t	-7956
a	-7957
o	-7958
i	-7959
s	-7960
n	-7961
r	-7962
h	-7963
l	-7964
d	-7965
u	-7966
c	-7967
p	-7968
m	-7969
w	-7970
y	-7971
g	-7972
f	-7973
,	-7974
b	-7975
.	-7976
v	-7977
k	-7978
;	-7979
&	-7980
-	-7981
q	-7982
x	-7983
j	-7984
0	-7985
?	-7986
z	-7987
1	-7988
:	-7989
2	-7990
9	-7991
5	-7992
3	-7993
4	-7994
8	-7995
